[UNK]
[SEP]
[PAD]
[CLS]
[MASK]
!
"
#
$
%
&
(
)
*
+
,
-
.
/
0
1
2
3
4
5
6
7
8
9
:
;
=
?
@
[
\
]
^
_
`
a
b
c
d
e
f
g
h
i
j
k
l
m
n
o
p
q
r
s
t
u
v
w
x
y
z
{
}
~
¡
£
¥
§
«
¬
®
°
±
²
³
´
µ
·
¹
º
»
¼
½
¾
×
ß
æ
ð
÷
ø
þ
đ
ħ
ı
ł
ŋ
œ
ƒ
ɐ
ɑ
ɒ
ɔ
ə
ɛ
ɡ
ɪ
ʁ
ʃ
ʊ
ʒ
ʔ
ʰ
ʲ
ʻ
ʼ
ʾ
ʿ
ˈ
ˌ
ː
˚
α
β
γ
δ
ε
ζ
η
θ
ι
κ
λ
μ
ν
ξ
ο
π
ρ
ς
σ
τ
υ
φ
χ
ψ
ω
а
б
в
г
д
е
ж
з
и
к
л
м
н
о
п
р
с
т
у
ф
х
ц
ч
ш
щ
ъ
ы
ь
э
ю
я
і
ј
ћ
қ
ү
ә
ө
ա
ե
ի
կ
հ
մ
յ
ն
ո
ս
տ
ր
ւ
א
ב
ג
ד
ה
ו
ז
ח
ט
י
ך
כ
ל
ם
מ
ן
נ
ס
ע
פ
ץ
צ
ק
ר
ש
ת
،
ء
ا
ب
ة
ت
ث
ج
ح
خ
د
ذ
ر
ز
س
ش
ص
ض
ط
ظ
ع
غ
ـ
ف
ق
ك
ل
م
ن
ه
و
ى
ي
پ
چ
ڠ
ڤ
ک
گ
ہ
ی
ܐ
अ
आ
उ
क
ग
च
ज
ट
ड
ण
त
थ
द
ध
न
प
ब
भ
म
य
र
ल
व
श
ष
स
ह
ा
ि
ी
ो
ক
গ
চ
জ
ত
দ
ন
প
ব
ম
য
র
ল
শ
স
হ
া
ি
ী
ে
ਾ
க
ச
த
ன
ப
ம
ய
ர
ல
ா
ி
ு
ం
క
త
న
ర
ల
ు
ರ
ಾ
ා
ก
ข
ค
ง
จ
ช
ด
ต
ท
ธ
น
บ
ป
พ
ม
ย
ร
ล
ว
ศ
ส
ห
อ
ะ
า
เ
แ
โ
ไ
་
བ
ར
ས
မ
ာ
း
ა
ე
ვ
თ
ი
ლ
მ
ო
რ
ს
ᄀ
ᄁ
ᄂ
ᄃ
ᄄ
ᄅ
ᄆ
ᄇ
ᄈ
ᄉ
ᄊ
ᄋ
ᄌ
ᄎ
ᄏ
ᄐ
ᄑ
ᄒ
ᅡ
ᅢ
ᅣ
ᅥ
ᅦ
ᅧ
ᅨ
ᅩ
ᅪ
ᅬ
ᅭ
ᅮ
ᅯ
ᅱ
ᅲ
ᅳ
ᅴ
ᅵ
ᆨ
ᆫ
ᆯ
ᆷ
ᆸ
ᆺ
ᆻ
ᆼ
ក
រ
ា
ᨅ
ᨆ
ᨈ
ᨑ
ᨒ
ᨔ
ᨕ
ᨙ
ᨚ
ᴡ
‐
‑
–
—
―
‖
‘
’
“
”
„
‟
†
‡
•
…
‰
′
″
‹
›
⁄
⁰
₩
€
₱
₹
℃
ℓ
™
→
−
√
∞
≈
≡
≤
≥
⋅
▪
●
◦
★
☆
♭
⟨
⟩
ⴰ
、
。
〈
〉
》
「
」
〜
あ
い
う
え
お
か
き
く
け
こ
さ
し
す
せ
そ
た
ち
っ
つ
て
と
な
に
ね
の
は
ひ
ふ
へ
ほ
ま
み
め
も
ゃ
や
よ
ら
り
る
れ
ろ
わ
を
ん
ア
ィ
イ
ウ
ェ
エ
オ
カ
キ
ク
ケ
コ
サ
シ
ス
セ
ソ
タ
チ
ッ
ツ
テ
ト
ナ
ニ
ハ
ヒ
フ
ヘ
ホ
マ
ミ
ム
メ
モ
ャ
ヤ
ュ
ョ
ラ
リ
ル
レ
ロ
ワ
ン
・
ー
一
丁
七
万
三
上
下
不
世
东
中
丹
主
之
九
事
二
五
井
京
人
仁
今
仙
代
令
仲
伊
会
伯
何
佛
你
使
侯
保
信
偵
傳
僕
元
先
光
全
八
公
六
共
兵
内
军
出
分
利
劉
力
加
動
勝
化
北
区
區
十
千
华
南
博
原
友
口
古
台
史
号
司
合
吉
同
名
后
君
吳
周
命
和
唐
商
四
回
国
國
園
圖
土
地
城
堂
場
士
壽
夏
外
多
大
天
太
夫
女
如
妃
始
姬
威
媛
子
字
孝
学
孫
學
宇
安
宋
宗
官
定
宣
宮
家
宿
富
寧
寶
寺
将
將
尊
小
少
尚
尼
居
屋
山
岳
島
川
州
工
左
市
布
帝
師
常
平
年
府
康
廣
延
建
式
张
張
後
徐
御
德
心
志
忠
思
愛
慶
成
我
戦
戰
房
所
手
探
摩
政
教
敬
文
新
方
族
日
昌
明
星
春
昭
是
時
景
曲
書
曹
最
會
月
有
朝
木
本
朱
李
村
来
東
松
林
校
株
根
梁
楊
楚
業
極
樂
橋
機
歌
正
武
殿
比
氏
民
水
永
江
沙
河
治
泉
法
波
洋
洪
流
海
清
港
漢
灣
火
無
物
特
玄
玉
王
理
生
田
男
界
白
百
的
皇
目
直
相
真
知
石
社
祖
神
福
秀
秋
科
秦
空
立
章
第
等
節
紀
紫
經
縣
羅
美
義
老
者
聖
胡
臣
自
興
航
良
色
花
英
草
華
萬
葉
藤
虎
行
衛
西
見
親
言
記
許
話
語
谷
起
越
趙
路
軍
通
道
遠
那
郎
郡
部
郭
都
鄭
里
重
野
金
銀
镇
長
长
門
開
關
阳
阿
陈
限
院
陳
陵
陽
隆
雄
集
雪
雲
電
青
面
韓
音
頭
風
飛
食
香
馬
駅
高
鬼
魂
魏
黃
黄
龍
龙
ꦏ
ꦒ
ꦗ
ꦠ
ꦢ
ꦤ
ꦥ
ꦧ
ꦩ
ꦫ
ꦭ
ꦮ
ꦱ
ꦲ
ꦴ
ꦺ
꧀
ﷺ
！
（
）
，
：
～
￼
##u
##d
##a
##r
##t
##n
##l
##i
##b
##g
##h
##o
##m
##s
##e
##x
##5
##2
##8
##9
##y
##c
##j
##k
##p
##w
##v
##f
##ي
##ر
##ك
##ا
##س
##1
##ל
##ו
##ן
##α
##ο
##υ
##τ
##ζ
##η
##ς
##z
##6
##ᅮ
##ᆨ
##4
##q
##ふ
##く
##צ
##ר
##ת
##и
##а
##ц
##н
##т
##0
##3
##7
##ل
##ح
##و
##ض
##æ
##ι
##β
##ε
##ρ
##δ
##λ
##ł
##ø
##ف
##р
##д
##с
##к
##у
##л
##ч
##ש
##ה
##ص
##ب
##ক
##ᅥ
##ல
##ா
##е
##ћ
##د
##ز
##ى
##ে
##া
##ন
##র
##ن
##ు
##ڠ
##ش
##ی
##ː
##о
##ส
##ม
##า
##ค
##ก
##ร
##ป
##ย
##ช
##ต
##ד
##נ
##ј
##в
##ಾ
##ν
##γ
##פ
##י
##ם
##ि
##क
##ב
##ק
##レ
##シ
##ェ
##ン
##ス
##ի
##ա
##ե
##ி
##ன
##ப
##ு
##ர
##ம
##ш
##қ
##б
##μ
##κ
##ω
##π
##ー
##ト
##м
##щ
##ξ
##χ
##ा
##ल
##ᅩ
##ع
##ت
##は
##る
##ج
##م
##ة
##х
##ق
##г
##ז
##א
##ه
##ء
##ய
##न
##र
##ᅡ
##ᆸ
##ち
##ы
##ı
##ᅧ
##ᆫ
##ヒ
##ウ
##տ
##ր
##ո
##ս
##յ
##ն
##ذ
##σ
##ᆼ
##ッ
##コ
##マ
##フ
##ル
##দ
##ি
##з
##ð
##ħ
##リ
##ᅦ
##ᆯ
##خ
##گ
##մ
##ע
##ך
##द
##מ
##ө
##ह
##ज
##ˈ
##ɔ
##я
##ŋ
##な
##い
##ə
##か
##ら
##て
##し
##こ
##ャ
##ハ
##ж
##ß
##φ
##º
##ʃ
##の
##হ
##క
##स
##ɒ
##ւ
##っ
##た
##タ
##ホ
##ɡ
##ᅵ
##น
##อ
##พ
##ะ
##ท
##ธ
##บ
##จ
##ล
##ง
##य
##θ
##ᨕ
##ᨙ
##ᨔ
##µ
##ь
##ण
##メ
##セ
##э
##ـ
##þ
##ツ
##キ
##স
##च
##і
##п
##ケ
##エ
##テ
##オ
##ܐ
##ာ
##မ
##း
##त
##ब
##ర
##व
##ث
##チ
##ク
##イ
##ү
##よ
##ꦥ
##ʿ
##ᅣ
##ꦺ
##ꦴ
##ア
##แ
##ס
##ो
##ط
##ん
##ゃ
##ɪ
##म
##կ
##ᅳ
##რ
##ო
##ლ
##ე
##ა
##ი
##ს
##サ
##ナ
##ミ
##œ
##ས
##ک
##カ
##ා
##غ
##ɑ
##ʻ
##த
##に
##ひ
##ᆺ
##ी
##ห
##ম
##れ
##ラ
##め
##ল
##য
##ʒ
##ར
##đ
##ɐ
##ব
##ত
##ী
##ध
##ט
##ᅢ
##ʼ
##ᨚ
##ɛ
##ф
##き
##そ
##ರ
##ъ
##り
##ח
##ほ
##へ
##श
##ʲ
##ด
##ま
##ว
##と
##ʊ
##ʔ
##थ
##つ
##ᆷ
##ग
##ꦫ
##ظ
##ਾ
##も
##ⴰ
##ం
##ꦱ
##ꦤ
##ろ
##あ
##ᨒ
##う
##ꦭ
##ꦮ
##თ
##ვ
##ꦢ
##כ
##ヘ
##հ
##み
##す
##ニ
##ᅱ
##ג
##ꦧ
##শ
##お
##を
##ꦗ
##け
##โ
##ʾ
##प
##ᨈ
##త
##ʰ
##ꦠ
##ศ
##ソ
##ᅪ
##ہ
##ә
##پ
##ា
##រ
##ワ
##چ
##ᨑ
##さ
##ڤ
##ꦲ
##ヤ
##や
##ィ
##ム
##ट
##ꦏ
##চ
##भ
##ड
##ల
##গ
##న
##เ
##প
##ꦩ
##せ
##জ
##ロ
##ね
##ᅭ
##ץ
##ᨅ
##ψ
##ச
##ᅲ
##ष
##ュ
##ю
##ˌ
##ョ
##ข
##ᅨ
##მ
##ไ
##え
##ក
##ᆻ
##ᅴ
##ᴡ
##ʁ
##ᨆ
##ℓ
##ᅬ
##ᅯ
##モ
##க
##わ
##ꦒ
##བ
##अ
##ᄇ
##उ
##an
##er
##en
##ar
##ang
##ah
##al
##at
di
se
##am
##in
##as
##ak
##un
##em
##ad
men
##el
##es
##kan
##ya
dan
yang
##is
##tu
##on
##il
##ga
in
##ik
##ari
ke
ber
##us
##ta
##eng
##ada
ter
##bu
per
##or
##ing
##ur
##it
##um
dari
##ia
pada
##ara
##ir
##nya
##id
##ul
##ap
ini
##akan
ad
##ba
mem
##ol
##alah
##uk
##im
##ek
##ama
un
##engan
dengan
##ian
##tuk
##asi
##up
##alam
meng
##om
##ung
mer
##ut
adalah
##le
sep
##ag
dalam
an
untuk
pen
##ti
##ud
##ai
##ro
##ter
tah
##eb
##si
tahun
##et
##gai
##and
##se
20
##ay
seba
19
##leh
oleh
##adi
##atan
ju
pem
##os
##aw
##ih
sebagai
##ain
##anya
or
##eg
##elah
##tr
menj
##ok
juga
##but
sp
##uh
##ed
##ber
##aj
##esi
sel
##upakan
merupakan
##bang
##ong
bah
##asa
##atu
##amp
mel
##wa
##apat
##ab
al
kem
bag
##ali
ia
as
##od
menjadi
ser
##sebut
##isi
##ep
kar
pert
peng
ar
##idak
spesi
##ukan
ata
##ent
spesies
##end
tidak
pro
##op
meny
atau
##aan
##ua
##ub
kel
##angan
sek
ind
pr
##pat
##ika
##iri
##ic
bagian
fil
##ahan
set
##ota
itu
201
dip
ak
##gi
ap
##ot
sem
##ana
tersebut
##buah
##eka
##any
sebuah
##ip
##gal
##ilik
##aya
kep
##anj
mereka
200
mas
##ena
ker
bar
##ata
##ati
##esar
##ac
##ant
##eta
##int
dapat
dik
am
##uan
seb
##amb
orang
sa
lain
##iliki
##tem
##gun
telah
##ra
pend
satu
##cara
memiliki
kon
neg
bi
##erti
##ri
##ch
leb
des
seperti
##inya
kom
pertama
bahwa
##ew
##ikan
##itas
ag
##aran
is
##lah
##tara
mus
karena
th
kota
##ones
##do
setelah
##angk
##erap
beb
lebih
mend
##orang
sej
dis
ang
film
indones
st
indonesia
##ja
##onal
nama
##etap
##ae
##ui
##gunakan
##ingga
kec
ch
gen
##oh
bel
##per
tem
##ita
seorang
##ili
##og
akan
##erapa
beberapa
tim
##hir
##anyak
secara
saat
at
besar
da
kemud
##asan
##ala
la
##asil
##ind
kemudian
su
##ib
##ayu
##ungan
##ris
##th
##arkan
##rop
##ingk
##alan
ka
tang
bers
tetap
dit
ked
ti
ada
menc
##anc
pas
lal
##ov
##00
kes
##aman
wil
dia
terd
berk
par
mar
##ula
##tus
ket
##alia
kayu
tr
lag
fam
negara
##enal
##sa
dir
banyak
desa
##imp
dil
memb
##unan
##man
para
##entuk
ordo
um
kali
apos
sen
##tur
##uar
pel
##uj
genus
##olong
##buat
##bit
##eh
##iv
##ulai
the
bahasa
##idup
ek
nam
kelas
##ob
terg
##oid
##ec
##asanya
##gan
antara
dim
dua
18
##aja
famili
salah
tan
man
199
##erint
##mi
biasanya
##la
kum
##han
aster
##ayah
sang
peny
##erah
tanggal
aw
##unya
##akukan
wilayah
mengh
amer
##uran
##ka
ab
##unia
berb
tergolong
pol
tetapi
##ev
##tak
samp
##li
asteroid
##idae
har
sed
bul
atas
il
##ers
##anjang
sebel
dunia
##ug
kumbang
hal
mes
put
sebelum
anak
##tor
baru
##orm
##asional
##if
amerika
##ima
br
ting
mak
ut
##emp
pemerint
namun
pl
lalat
did
anim
##itar
##eri
send
en
##aitu
hingga
kepada
de
sh
bat
yaitu
##entara
##mas
akhir
tempat
##angkan
selama
umum
me
hidup
##ikut
##umlah
so
##ingan
sis
##tar
##oda
berd
pes
##na
dib
ger
##ig
hari
mat
hanya
ing
sendiri
rum
##yar
##tera
menye
ba
##annya
terb
##ingkat
##ina
ketika
##uruh
##adap
angg
##anda
king
##und
digunakan
sampai
wak
##uku
##to
##embang
din
##unc
sama
##tai
##bab
##awan
bis
##unj
pal
ku
ma
kh
##usia
pers
seh
##asih
terle
##bali
##dom
##ten
serta
daerah
##ard
sekitar
gr
memper
##iap
lagu
##tan
diter
##akar
bang
##ni
air
##ikat
##ode
filum
kek
sangat
kingdom
animalia
disebut
arth
us
terj
bersama
##arang
##udah
cer
barat
##su
re
masa
##uduk
##cta
kedua
of
lainnya
sejak
##duk
inse
pern
##ropoda
##ea
inter
selatan
arthropoda
##arah
kap
insecta
awal
kembali
##olo
##amatan
##ting
berh
sur
##omp
teng
##usah
terletak
timur
bulan
res
sum
dikenal
198
##ses
##ori
##ikasi
beras
##ungk
anggota
##olah
##entang
diper
menggunakan
##ans
##ons
memp
col
##oc
##ont
##awa
terh
##akat
##ow
tel
membuat
##ilih
war
##uas
##di
##itik
pula
##ulis
perm
##babkan
si
kor
##impin
##est
komp
berp
##gian
keb
##angg
mulai
##ini
berasal
kl
member
panjang
##uda
##atakan
##alui
##paten
kabu
ditem
pemb
sm
12
eks
##yah
tak
##emb
raja
kecamatan
##gap
##aki
##bitkan
masih
sementara
berba
melalui
##ember
rumah
10
dem
##ustr
fr
##utan
perang
baw
sehingga
berada
##era
te
em
kons
utama
sekolah
##insi
li
termas
pan
##tif
kabupaten
termasuk
##angs
keluar
serikat
##iran
##ilis
##ilan
##bum
utara
##enc
and
##ani
##alis
band
jep
kr
terk
##va
berm
terdapat
tur
waktu
tiga
ingg
bisa
##ju
menyebabkan
lar
inggris
##ahkan
terhadap
tinggi
kal
##gr
bert
tek
##yarakat
berbagai
kur
dr
197
##ologi
##upun
bagi
berl
##tik
penduduk
masyarakat
##uari
selain
min
diterbitkan
##eker
album
##ola
univ
##buhan
##ha
suatu
##iter
##me
##ubah
tum
##ensi
pe
##aks
intern
prov
ne
jepang
##usi
15
##atkan
sun
mendapat
bawah
ok
jer
sudah
##bur
sistem
##uc
univers
##inggal
tentang
mal
menur
bern
ii
196
berj
##itan
laut
##yc
##enis
##apan
pernah
provinsi
pos
sal
##akarta
negeri
med
semua
##iden
##ungkin
ilmi
##ubl
pengh
ilmiah
nasional
musik
##usahaan
pus
bu
##idikan
kat
perusahaan
musim
el
gel
##ton
17
dek
##uni
baik
keh
jawa
terdiri
karya
mil
##eop
##antu
kecil
abad
melakukan
bud
seri
jumlah
laba
ins
terjadi
tengah
mod
paling
194
mesk
##awat
terp
##ihat
16
##anan
##hi
berikut
keraj
##akhir
##tikan
seluruh
pemerintah
terl
##eda
##uli
##ahari
sk
sul
##duksi
##asarkan
pendidikan
nov
##yat
mana
perk
##ump
##ond
coleop
coleoptera
##buh
##angi
##teri
pres
menurut
##irikan
lah
sebagian
##ij
jalan
kerajaan
dih
##angsung
ist
000
mis
sin
##ne
##lam
##abat
##af
meninggal
11
##anjut
dew
##aris
ditu
jerman
setiap
##ancis
sesu
akhirnya
larva
pulau
##ompok
dilakukan
mah
harus
str
sering
rom
ben
bal
kerus
ac
13
##atif
plan
batang
pasukan
##eja
dep
matahari
##wan
93
##ril
##ukkan
diber
##ami
angk
91
diri
le
tok
cuk
##gab
##angkat
##onom
tanah
lahir
bernama
##inta
##ukum
kapal
##aknya
##ersi
##te
belanda
##pa
##oy
##ambil
##apai
sungai
195
##lis
masing
pemerintahan
mener
kata
makan
##ma
sebelumnya
perd
perj
kerusakan
##eks
##eran
14
##uru
sekarang
bentuk
##ens
lagi
tand
kol
pusat
##isasi
ul
##asar
planet
universitas
##ilah
cukup
##ine
tu
##angka
im
##anggap
memba
pop
gereja
##aku
##ou
berhasil
##ord
ik
jar
##adang
rep
prancis
##umi
sebesar
##bangun
##idang
##re
ud
organ
inf
tekn
kris
##ern
menem
luar
up
##ipun
erop
##amanya
eropa
manusia
##utus
##uasa
##tiv
##ci
##ila
meskipun
proses
##etah
umumnya
berdasarkan
lok
tiong
##ampil
maka
ib
##ublik
##ekerja
##askan
ge
trans
muda
##engk
##ubungan
ob
kepala
progr
pun
##land
hukum
jan
tanduk
sat
jam
kita
##ebang
mag
kelompok
##ebor
jenis
##ly
##araan
keluarga
ji
##ich
##aksi
dekat
ibu
##aka
##usus
sejarah
##isme
memberikan
##uhan
hasil
##ura
lalu
##entu
ditebang
terba
komun
sy
gun
##ca
mengebor
ceramb
cerambyc
cerambycidae
pesawat
km
##epat
id
##eae
##ibat
##ki
##api
pener
dar
presiden
ri
##usan
na
politik
acara
program
##mu
##gaan
mengen
##ell
##ank
maj
ir
##ef
dirilis
dij
partai
##ingg
tumbuhan
bur
bl
it
##uncul
##erasi
dat
pemain
juni
lem
buku
##alu
khusus
pa
met
##raf
masuk
##unyai
islam
##ry
##atat
##asis
udara
mempunyai
gu
ed
##ender
jakarta
nom
jika
2010
luas
terc
empat
stasi
##rad
bidang
##gabung
##istr
jal
suku
ja
dic
nebu
agama
menga
##antan
bangsa
##akit
##entr
agus
##inal
kas
dig
sw
tuj
batu
stasiun
nebula
##aruh
pi
lama
pat
kamp
internasional
af
##emen
##buka
amp
asal
##egi
##ira
on
##eo
berbeda
berubah
bumi
##inasi
##udul
##ator
lap
ayah
bola
juli
##oleh
ro
memen
india
car
perl
##por
##uka
diba
kaw
##elit
bermain
##tober
stu
##ukung
pet
terakhir
desember
sedangkan
##tember
laki
##upa
mei
wan
popul
oktober
bekerja
diptera
ru
mendapatkan
sosi
##oph
co
sup
trad
ilmu
##urkan
menunj
##ulu
jalur
##ation
september
mon
penggun
ep
##tis
2011
ditemukan
muncul
maret
maupun
sumber
tanpa
tinggal
##ger
agustus
penc
##ill
ah
kun
lt
##atian
mencapai
##ayaan
gt
jiwa
new
resmi
januari
##tua
##uti
193
2012
keti
april
sekali
hak
dasar
sub
##ebr
30
##osi
##ida
sam
menteri
austr
militer
##onomi
terkenal
menyatakan
dibuat
sing
##inan
penghar
oper
##ge
##ity
to
und
##uri
bo
##buk
##ho
penghargaan
pang
##kok
tradisi
##war
be
##ormasi
penting
bukan
##nis
ur
##isan
korea
##ikuti
ters
juta
dianggap
##udi
kan
agar
ca
##eksi
##engg
bad
##bangan
antar
lay
orbit
klub
rak
2013
perb
gelar
seni
mengg
25
##embangan
tiongkok
no
didirikan
langsung
##asilkan
##intang
##omb
peri
##ilai
##aikan
##alami
tingkat
mengenai
##ach
##atur
kam
2009
hubungan
##ue
angkatan
##ajar
2014
lat
november
er
##evisi
cara
sedang
##tas
##ej
bab
peremp
2008
wanita
sejumlah
putra
kurang
suara
kereta
##aria
perempuan
##fer
bahan
##utrad
2007
##ack
ph
tubuh
republik
rek
##utu
##pr
es
joh
##all
kari
##son
##ungsi
yak
versi
mungkin
##utama
organisasi
##au
studi
por
melawan
terbaik
mur
##ade
##andingan
fak
sar
##ela
ketiga
##iman
##yak
bahkan
##etahui
for
##alnya
terbentuk
##adakan
bin
posisi
##akai
menik
ekonomi
del
##isah
2015
api
##ihan
##utradara
alam
##ey
##bul
sepak
grup
##ban
##isar
febr
bun
2006
lima
prof
##iet
tercatat
##imal
##atus
192
televisi
mo
saja
kej
##sep
dok
terutama
21
buk
februari
##amm
permuk
pembang
gunung
##gen
mengalami
bangunan
pec
##unt
##titu
menyel
##lo
rakyat
##awi
berar
raya
##uatan
sebelah
kesel
suk
##roduksi
ditulis
mul
bergabung
##ihak
2016
tokoh
##min
surat
bend
industr
makanan
terbesar
menerima
hit
ef
periode
lingk
##ast
##ron
##usun
her
menulis
##olusi
##ampu
##tra
##kannya
##ilihan
zaman
##eli
hi
sch
budaya
nya
##art
sesuatu
##pati
istilah
pember
rata
pertandingan
pul
menunjukkan
akibat
unit
kawasan
##fa
##ales
biasa
berarti
penulis
com
mengambil
##adaan
kegi
ko
saud
##ask
dimulai
aj
##aih
##ungg
ken
gl
industri
##tri
##za
##ual
dibangun
nomor
awalnya
bintang
penj
##ainan
kegiatan
tentara
##kup
ped
prim
peran
asia
24
##asti
##inc
italia
po
##embangkan
kab
sosial
##empat
##ark
dewan
##erang
cont
mut
##arnya
##kr
22
sim
menemukan
pihak
mob
##oni
kant
##ts
rusia
2005
##ock
belum
##umen
putri
hamp
##of
meningkat
##edi
##aksan
membentuk
191
##ver
##adem
cat
##ork
##uanya
##ograf
he
##ess
vid
seg
kehidup
jauh
jo
##ona
produksi
san
ps
##olik
##empuran
mata
cerita
permukaan
##iz
##st
menjabat
pembangunan
pertempuran
gol
##gantikan
kristen
##ulan
##ny
produk
menikah
mobil
mesin
memas
##ass
pand
##abatan
##entukan
terus
##olog
kaisar
sepanjang
kim
karier
##nam
##encana
23
cl
pendek
##atasan
##unuh
bertem
##anding
##engah
2004
kematian
ketua
undang
##uruhan
##erta
##arap
warga
kemen
100
arab
##ikian
memulai
##indah
mad
distr
##anjian
##rat
jaringan
daf
go
##alaman
##oto
perjanjian
tip
kebu
tujuan
##aha
##ainkan
buah
yunan
serangan
##akter
##ektur
##ei
##etak
contoh
mic
melihat
yunani
##anyakan
##lim
may
media
kehidupan
##yl
fl
2017
kend
##endah
mengak
form
masalah
agung
yakni
sesuai
##ii
daftar
##irkan
##uju
##irim
##uki
##ubahan
hampir
menghasilkan
##ungi
##ore
##arik
##ora
video
ha
perc
dirinya
##itania
sc
##anyi
##aranya
##baga
keseluruhan
memenangkan
pemimpin
##enj
datang
penelit
kini
saya
pin
semak
berjudul
##uat
karakter
diberikan
##ite
belak
radi
mampu
sah
menuju
jur
##tes
##enang
hind
sebanyak
pad
badan
##atuh
##angga
uni
##umum
##ros
mengatakan
gag
mengikuti
##ohon
perubahan
##ays
john
britania
##takan
##sed
##inggu
kul
##onia
ruang
##igh
ged
permainan
kerja
##ikit
pantai
demikian
div
keber
modern
op
kekuasa
menyebut
liga
kontr
wala
kitab
serial
sas
sil
##iti
tug
##fat
membantu
sedikit
peris
mac
kekuatan
nilai
##tudo
##ampilkan
##bi
epis
membawa
##arakan
##tuj
wis
##amat
##jid
##wak
mutl
perjalan
##pl
hutan
melip
dimana
ditemui
keras
muh
##ick
##nitudo
ex
ingin
##isitas
mew
teknologi
meraih
adanya
alat
du
hid
allah
##uktur
2000
##yo
##arian
##one
##isaran
##alahkan
milik
semakin
##alitas
operasi
tangan
depan
##ji
rel
##erd
kadang
magnitudo
##eter
##oba
cor
alk
##yek
meliputi
penggunaan
putih
tengg
##rom
pasar
2018
##tentu
##tic
bay
tertentu
26
usia
ny
##tin
lam
pangeran
afr
dom
##bo
##ash
diperk
pertamanya
sumat
##asikan
elek
##ganti
##pada
apa
kong
##engaruh
27
eksentr
jabatan
kebanyakan
sta
piala
model
berkembang
##antung
lembaga
merah
gerakan
situs
selalu
##jo
##anian
berupa
lingkungan
pur
penga
##umumkan
australia
##olak
ayahnya
jender
eksentrisitas
pak
ol
katolik
rendah
##tasi
kond
##osa
masjid
daya
##operasi
##ase
uk
##ulus
pecahan
data
gamb
##ist
mutlaknya
benar
misalnya
cal
2019
pot
##landia
keka
##turunan
##ie
log
##tuh
spons
yah
##ica
jenderal
pemba
award
kekaisaran
drama
##ins
##awab
##anjutnya
tua
##ith
tot
##usaha
keturunan
ses
##ulkan
satunya
##anggung
selanjutnya
##ational
mengaj
informasi
fis
##tiwa
ta
daripada
sultan
mendirikan
perdana
##imana
wakil
##ve
kekuasaan
##jek
sisi
##ice
##ilia
diketahui
##elu
meter
diberi
ho
2003
lu
pemilihan
28
con
sma
##urahan
episode
##impinan
tamp
malam
##apa
tugas
asli
warna
arm
##anyol
berg
belakang
##iki
my
##ongan
pt
##utuskan
##res
enam
##io
ram
perjalanan
##ordi
kuno
##iptakan
##les
bir
##andang
##gaimana
dise
##eum
##elaj
##atas
##elengg
belajar
sakit
spanyol
perh
##ekerj
##tum
guru
gar
##sur
afrika
##utradarai
anti
distrik
##edia
et
walaupun
primordi
leg
##apun
kelurahan
primordial
berikutnya
##uter
mor
kantor
##ilang
##ler
##tion
tepat
##tug
duk
##angkap
kuat
gedung
aran
##isimal
planetisimal
##alif
efek
tv
##ate
hong
sov
proyek
muhamm
##tual
bek
diadakan
bus
taman
##pur
##ment
penelitian
gam
stand
ot
sumatra
berlangsung
sempat
##tern
##ampuan
meninggalkan
fa
##uth
peristiwa
kaum
pertanian
##intangi
kalim
2002
##ambarkan
romawi
##isip
gaya
##ania
##ater
tam
50
##abel
ham
2001
do
##anjutkan
memilih
keter
tradisional
##bern
##aksanakan
teknik
ra
##utusan
gal
abd
##iko
bank
kak
penerbangan
hew
##ambah
mati
arah
usaha
##bar
soviet
rev
penyanyi
ikan
##emuan
pergi
##qu
dipimpin
mantan
mit
tep
mendukung
isra
##bert
bantu
malays
lemb
##tinggi
cepat
##ibatkan
31
memutuskan
##egang
mengk
lokasi
barang
tar
tulis
##ayang
tampil
tiba
29
##rik
berakhir
ahli
malaysia
##ph
##oro
190
panas
bup
bunga
bak
##no
dinasti
der
utamanya
membangun
##da
##co
kondisi
senj
total
##zi
pindah
##elas
kemampuan
os
keseh
##ish
admin
##via
istana
israel
iii
garis
berisi
kaki
kasus
non
##fi
uang
##ino
den
aktif
hewan
##atangan
##egitu
mand
##iknya
fi
novel
##ilangan
begitu
rad
##lukan
keduanya
debut
top
yahudi
art
##irip
lokal
##atis
##ubung
##gus
berat
administr
##akup
berper
diproduksi
##andia
penyakit
dita
saudara
sus
##lan
fes
komand
hitam
senjata
rah
1999
##eluarkan
##oran
perp
mencari
disutradarai
##resi
prod
jatuh
##ambahan
kebij
kesehatan
mark
dah
tanaman
pag
final
##ley
##amai
##ann
ev
terpilih
dag
##inkan
uj
had
camp
##ulauan
batas
radio
konf
bandung
mesir
##asiswa
banj
york
##apkan
tind
kepulauan
##amaan
kompet
elektr
memberi
##sedia
perg
pengembangan
##sh
struktur
keputusan
##ema
jarak
keadaan
teori
tenggara
bersi
inv
peg
berdiri
astr
dipakai
memperoleh
##warna
gubern
dewa
ras
##ono
ikut
museum
kos
fungsi
40
pohon
akadem
##aceae
tertinggi
super
##tival
ant
olah
fo
##ografi
##ret
kot
##artem
##burg
gubernur
##rasi
populer
namanya
menampilkan
berwarna
layanan
##egori
festival
nor
tangga
dibentuk
##har
##upiter
bertemu
sl
perkembangan
yes
##butan
ener
seben
menjel
sir
unsur
dibanding
int
aktiv
##engahan
##osp
hab
##iaya
juara
divisi
pertengahan
cr
##ce
sebenarnya
singel
kisah
ga
##alkan
##andung
##anjung
ulang
pu
institu
##ez
189
sik
lan
##askah
##urus
##iring
##omo
luk
asp
babak
catatan
char
dusun
mun
##etapkan
menggantikan
burung
##20
##ner
penuh
pria
sip
hot
##bol
##ingkatan
##gin
naskah
sif
reg
populasi
kebijakan
antaranya
##oks
bantuan
teman
pengg
mencakup
muslim
bisnis
##he
stadi
vol
konsep
kesul
pembu
##aksa
##ulang
##unda
suci
van
##itab
daun
##gerak
jadi
meminta
muhammad
##abi
kop
kampung
tapi
mudah
##esaikan
##epatan
ars
##eral
##artemen
##tuhan
yo
sekaligus
##atnya
##adilan
##orn
gambar
keju
##uler
##amanan
plat
##etik
paus
##oritas
kimia
1990
menarik
##ukul
benda
##ebar
ay
sana
##ff
titik
bro
objek
pasangan
##ria
minggu
##agangan
##iss
roma
##raga
meningkatkan
##ungkinan
##go
##ium
perdagangan
segera
##wi
hy
##asif
budd
ali
gad
mol
mu
wor
pelat
rem
##orong
##baya
memperk
hati
peringkat
dewasa
teks
rasa
istri
geor
aktor
sd
##anto
##bon
##rah
perangkat
bali
ialah
menjalan
ki
fakul
kemungkinan
mot
pap
##alahan
vir
fasil
menengah
##ath
##ld
hol
##elis
misi
mempert
keper
kategori
##gala
pekerj
gas
kompl
diangkat
konser
cinta
##ensis
zh
memerint
yog
##adian
pesan
##adikan
sese
alkitab
ratu
##itif
fakultas
kala
dif
##amin
##ace
##istrik
terlihat
mik
huru
komputer
term
##aturan
##ital
bandar
memakan
188
##ganya
##ney
prak
diak
pekerjaan
##uncurkan
darat
pelay
majalah
berbah
##ee
1998
##unggal
fasilitas
penguasa
##wah
seseorang
mengalahkan
sud
energi
prib
komunitas
##ancang
olahraga
yupiter
familia
diambil
ris
berf
stadion
manaj
chris
demok
##kait
listrik
##ajah
status
han
rus
huruf
lin
menolak
judul
az
perlu
gro
khas
pengaruh
aceh
##ampilan
gi
mahasiswa
iv
##uhi
tujuh
##acara
kemenangan
##arikan
##lex
##atuan
ide
##anti
lond
jawab
##ahanan
kalimantan
araneae
##erik
punc
##andi
##ilidae
terkait
##ral
##una
adat
##iling
berusaha
menyerang
berjalan
upaya
let
##uskan
upacara
wal
##dayaan
merek
uskup
london
##ungkinkan
lahan
profesi
tindakan
pernik
emas
##men
##enaga
merasa
pela
##ps
##enalkan
cabang
##yakarta
mengembangkan
ver
124
keempat
bent
merilis
##uruan
##encan
tanda
membu
lel
dibintangi
##ekan
##irakan
publik
mengirim
##bangkan
kulit
edisi
##ekaan
##ikasikan
pengguna
bas
00
##erita
##tuhkan
pernikahan
##din
yogyakarta
##isa
##50
##yi
##uman
melanjutkan
metode
##udukan
##bah
bebas
asam
ng
rencana
umat
park
rangka
pab
##ck
berbentuk
##ys
mengubah
hen
##asia
1980
singap
smp
##rig
##engaruhi
lew
temb
##oth
terlibat
##tal
standar
ref
menghadap
##iau
mencoba
pah
menand
##let
kemerd
mirip
tor
world
pil
dikembangkan
web
##tup
fin
keus
ukuran
##sigen
sifat
tom
memimpin
kemerdekaan
##ram
##ood
darah
##yp
khususnya
abdul
teg
terbuka
alasan
##tikel
##lemen
perse
jelas
yesus
##ool
keamanan
tunggal
siap
keuskup
mengumumkan
filip
nat
##tro
##yangkan
oksigen
city
##uksi
##edaan
tumbuh
desain
comp
keuskupan
dijadikan
dibandingkan
pej
suh
##asinya
elektron
fed
##etahuan
minyak
adi
abu
tro
##impi
kode
belas
bet
##ebut
##erahkan
membunuh
##ty
wh
##liam
strat
kompetisi
win
latin
rock
##atang
##lin
berusia
cy
mi
##agam
##sus
##abor
gagal
kepem
memungkinkan
##apor
ibunya
dav
1997
sura
lang
tambahan
departemen
hel
dial
seles
pred
murid
produs
##onton
##tugas
sab
bila
asing
##antik
##inggian
sri
##tain
nus
##ongia
pimpinan
##ku
##enia
##hana
500
perbedaan
pribadi
kebudayaan
##uhnya
menciptakan
##de
##uasai
bertahan
tni
berbasis
ton
sec
##estasi
##buran
##umpang
##ahankan
tenaga
glob
##ence
tuhan
wisata
##istan
ketinggian
kendaraan
aku
##itasi
##namen
rut
william
parlemen
##patkan
pengetahuan
##isahkan
##iksi
sig
##ean
mc
##lik
gug
surabaya
sukses
##tim
##amakan
diam
##ex
##yataan
##asta
kac
dimiliki
rat
aliran
tulisan
tai
kelah
mang
##osisi
##icara
peserta
obat
##akaian
sastra
danau
artis
av
##impan
pri
##hoa
dahulu
bersifat
komunikasi
dpr
##ras
berita
##enti
pertahanan
##bil
selesai
kad
##ceae
187
##tian
##ajak
eur
##wal
dukungan
mengandung
siswa
##tein
saw
bergerak
land
tionghoa
##uluh
era
##unjuk
berperan
##osis
kanada
##ke
terbang
turut
semb
medan
##amkan
##ferensi
sulaw
vok
singapura
sulawesi
sak
kalangan
##pir
##uga
##ding
keu
bukit
polisi
##laim
membuka
mask
##untu
##jau
banjar
ditayangkan
sol
##likasi
60
imam
##zim
terlalu
pelabuhan
##emat
diny
petani
pam
##unungan
##umur
serangga
diant
tersedia
eng
##tris
tari
lapangan
1996
##ahun
##ospongia
berbatasan
ung
dibu
korban
aktivitas
##ampung
polandia
mari
rekaman
##aji
pertemuan
dipilih
pegunungan
##ujan
dibagi
regi
biaya
diselengg
keuangan
##ipta
red
lengk
##ling
meski
angka
revolusi
tet
situ
mengur
cur
##ayani
lo
diselenggarakan
##yn
star
1970
##48
menyelesaikan
menit
koloni
turki
international
ujung
pukul
mewak
saluran
kud
1995
turun
##ujud
##sch
tri
##rit
##awanan
kil
menggambarkan
##uali
penumpang
pembuatan
mahk
maria
disi
##ance
##ene
##eld
bol
you
penju
##onis
##gia
ros
##empatan
ni
studio
##ediakan
single
padang
cm
bupati
##jana
##ominasi
##ius
##ester
menyediakan
generasi
roh
hip
dibuka
##isten
##ran
filipina
35
melayu
memainkan
##asik
delapan
alex
##uel
##aporkan
bukti
##kop
kebutuhan
turnamen
kepad
kritik
agresi
##ukuran
bandara
kompleks
arsit
dokumen
bap
tab
##yan
##pan
##abila
perwak
186
pejabat
naik
##ide
materi
his
paris
##edakan
##ajaran
mewakili
##esis
seder
##alisasi
formula
berc
puncak
penampilan
demospongia
##ham
cah
demospongiae
##tujuan
##engar
##zo
1994
pabrik
##eth
##okus
perint
sipil
buddha
reaksi
##ulasi
val
##oko
pendukung
memasuki
hotel
dend
lep
end
##alus
wali
profesional
##mer
aktris
1992
mengetahui
##ancurkan
bon
peraturan
##tanan
##ontakan
dj
mengadakan
qu
hindia
kod
##ujuk
##alisme
diikuti
##iskan
segala
putr
##unjukan
##ombang
konstitu
pemberontakan
lulus
hujan
##way
calon
kalinya
##ight
lun
menyer
diperkirakan
##uji
menyerap
perwakilan
james
aplikasi
vari
##ivid
##isir
##itung
1960
penduduknya
##uf
##ektar
menjadikan
memang
liv
prop
kecepatan
##erit
fir
day
##arapan
apabila
cir
perbatasan
dilaksanakan
##yu
sutradara
##ambahkan
kontes
rec
enter
tipe
##zh
##ato
##oma
ajaran
terbagi
##dow
individ
austria
tew
memakai
menjelaskan
##ayakan
##aga
##ahu
pras
##bia
##iah
1945
##aru
senya
##anye
##inisi
##itis
def
kami
all
1993
##rilus
agrilus
lint
saling
terny
##ersial
##pe
off
ternyata
##lum
kesultanan
##iam
##elar
menang
direktur
##unjung
puluh
perguruan
awards
rh
dingin
jemb
##ajib
pintu
benteng
##ement
32
berpend
##adah
area
net
don
##ale
pemenang
vi
tahu
##anta
aksi
diterima
##illa
fitur
adipati
ataupun
kejuaraan
berbahasa
senyawa
##po
mm
##onen
ass
##akah
1991
mayoritas
kelahiran
bes
##chi
kecuali
motor
tahap
##ibusi
bekas
fisik
percaya
menging
##engkapi
kira
##emahan
##ost
digital
ts
makam
##krip
##ologis
##urat
mempertahankan
mengeluarkan
##use
sain
##elola
pembentukan
##den
digantikan
harga
beg
kehilangan
##ven
bos
mili
terbatas
artinya
nag
we
##mar
##omba
tertu
bagaimana
kejadian
cahaya
suhu
pari
arg
##red
pengadilan
##amatkan
tewas
##ella
##tun
setempat
##indahkan
bakar
inj
maks
##ikiran
macam
perw
pendiri
wang
gre
cap
##pi
##uduki
##atasi
pep
##ewa
##ohan
bh
alih
agresif
predator
swasta
80
jembatan
##indungi
fer
perhatian
menganggap
sekret
##ko
##ail
aks
pac
hilang
kontrak
##terian
rob
lov
##yanya
1950
##ubungkan
##truksi
##unjungi
##rid
dimas
##ekat
##osiasi
pandangan
viet
miss
dikar
lewat
##form
##inj
merujuk
mencetak
##lar
phil
menghadapi
##anggil
diantaranya
##oli
laporan
##eles
##olis
anj
logam
internet
say
lim
##lus
berumur
sisa
gab
tata
kuil
##car
disebabkan
##bb
university
kand
faktor
ven
bor
##kar
##luk
massa
sebagaimana
nabi
beroperasi
##ude
##by
##enter
kabar
atom
##sk
##rus
##urn
##utar
tanjung
cina
##isipasi
##elajari
nep
transpor
far
hijau
myc
##imen
##faatkan
dian
istr
sulit
yay
##ander
##esm
jasa
tuan
##enda
45
menentukan
kementerian
##ahat
tekan
rump
buatan
pengan
sebutan
gor
pra
music
ditetapkan
##mad
##ugh
penjualan
##impiade
##ambat
bant
foto
##ych
##eidae
kesempatan
potensi
berjumlah
direk
##ayan
##entikan
##aju
70
hom
##elak
jurn
pertunjukan
gadis
pasal
##enakan
kursi
##berg
simbol
##atangani
difusi
##alin
david
dilihat
sayap
kiri
##rani
lengkap
makanannya
##eon
melew
melayani
karyanya
konflik
##unkan
pertum
berkata
##uddin
istrinya
grand
memenuhi
##angat
pemuda
ciri
dana
nuk
komisi
##caya
##insip
dokter
norm
peningkatan
tema
manajemen
bersa
##ometer
##istik
komandan
disingkat
##okan
33
memegang
##antara
##hael
##ary
##her
##alem
rp
dikirim
##vi
##eliling
memperl
##uma
##egah
##ajur
##opsi
##arat
satelit
##alisis
sederhana
vietnam
##irian
satuan
konv
##eritakan
united
##erus
##ume
berpori
miliar
prinsip
yayasan
##bulkan
##ental
mengund
##oman
##atik
olimpiade
tekanan
36
daging
##age
dev
perintah
##awar
maskapai
##angkah
musuh
konstitusi
1989
##ort
terpisah
##iro
bangs
bertugas
##turan
memproduksi
##tifikasi
academ
ribu
##uang
disebutkan
##ampak
sepuluh
##osh
keluarganya
demi
berfungsi
armada
semarang
nar
kebang
praktik
lev
paul
pertumbuhan
insting
tik
solo
tw
dihasilkan
##omi
##okasi
membuatnya
astrag
sebab
astragalus
##otr
##adinya
brasil
teluk
kanan
diluncurkan
berhubungan
##ikir
##ebasan
##baikan
bangk
sid
global
keberadaan
##usnya
dirancang
##ille
ip
##ear
##operasikan
##sen
demokrat
akademi
##irinya
asilidae
300
##atikan
individu
##reg
peter
##onel
kariernya
group
##nan
rich
robert
pekerja
##agang
##der
##cayaan
sarana
kampanye
son
##bal
persia
majelis
dataran
dewi
dikatakan
##amping
kalah
##get
##asaan
##esh
##ukai
##nu
##ks
tol
##unggu
pesisir
komedi
entertain
pelayanan
saham
##ainya
sekutu
pemilik
mengurangi
halaman
teater
samping
nik
lebar
layar
##intaan
champ
hadi
anaknya
senior
roy
tiap
##arawan
berkeb
##umpulkan
bomb
hongaria
##untungan
jul
len
perwira
##ero
skor
cuc
##cu
##lat
##gaw
melibatkan
##akuan
dibawa
jurusan
comm
##aksud
##be
##anji
berhenti
kuning
peral
swedia
melewati
menara
law
mekan
hor
ditand
kepercayaan
##gar
komunis
pangk
##umsi
mula
ayat
##ilu
apol
hindu
aman
90
toko
jaya
kn
charles
entertainment
##kin
terbuat
apakah
##que
george
##iyah
school
pakaian
protes
ajang
##itkan
setengah
dol
bersamaan
kopi
resolusi
##anyikan
balik
##ped
##endali
sehari
waf
luc
patung
pilihan
positif
##ophyl
lou
panggung
##acam
##erangan
but
nas
produser
1988
injil
menguasai
##ajurit
##nif
karang
klasik
tepatnya
gir
boy
china
urutan
gelombang
ele
##ward
prajurit
sarjana
fc
##tv
##mo
academy
intel
sad
anda
pok
##ankan
##asang
##asitas
inilah
lukisan
artikel
cit
##pirasi
bendera
play
kalau
komponen
irlandia
##ornia
ibrani
##apatan
##sual
can
##imbulkan
##ican
suka
menjaga
menempati
papua
##orium
ident
pemeran
penonton
sekretaris
dile
mendorong
akses
lee
calif
##olongan
##ker
##zz
dipl
##10
komersial
sektor
##uw
raj
semen
hend
##aitan
thail
##iner
thailand
dulu
molek
##agi
##cing
administrasi
alami
tempur
##pu
1986
##jaga
pera
jangka
thom
dilengkapi
tertua
##angsaan
biru
##mark
besi
rute
##jual
eksek
##alang
##akkan
memerintah
menyebutkan
diperlukan
##juangan
samud
hidro
mos
mund
nominasi
mengal
sembilan
puisi
##ory
mr
national
santo
##amaian
tampak
california
##bau
vic
##udara
##oki
lanjut
##adopsi
meman
##iel
mengakibatkan
pd
##30
merebut
diumumkan
dur
menduduki
sepen
##ontr
##elompok
rud
diubah
komite
lintas
##epend
1985
##mat
##emar
song
campuran
ten
game
langkah
maju
berkebangsaan
persen
rasi
kuda
##imb
transportasi
seminggu
##iana
34
ran
michael
mau
relatif
long
mengajar
melarikan
penyelengg
menaw
##atih
membutuhkan
sunda
tern
##rest
sand
perjuangan
melaksanakan
pemilu
bam
staf
##yli
mempelajari
##rich
independ
prom
##yarat
troya
sara
dijual
##jem
pulang
serupa
##juang
##ekar
bertanggung
candi
hadir
ringan
##ower
mengus
##ophyllum
teb
##adari
hidupnya
disel
##az
seiring
membeli
cok
ketidak
##ust
psych
etnis
sya
kelima
keker
berukuran
by
##entasi
berkaitan
menerbitkan
langit
##ormatan
kualitas
##gn
##ampaikan
##kripsi
sini
vokal
##hta
mengatur
##bs
##ford
##ire
bulb
berbicara
menawarkan
pengalaman
##ington
tun
##itor
menjalankan
aturan
kongres
memer
berlaku
ganda
black
arsitektur
185
henry
los
1987
##wood
1984
komando
gitar
buruk
apollo
menghancurkan
##net
hat
pic
vis
##uss
bangsawan
pernyataan
gur
##iapkan
bog
##las
ban
didukung
##aksanaan
jag
##utif
##own
##ake
##inet
nur
pekan
perairan
jarang
pola
run
kaya
semuanya
adik
kesen
iran
##migr
##alib
om
latar
##bai
##saan
##ingkan
lunak
bulbophyllum
##erj
lapisan
carex
pendapat
##itz
##uliah
remaja
dinamakan
frank
38
##ere
##eet
not
kew
kilometer
##val
##ado
gagasan
tersebar
##ustak
##leb
buruh
##ifikasi
##abiskan
only
profes
##ustakaan
pasif
ulama
##ls
##tren
##ese
angin
##ott
##ijaya
##ebon
##are
pelajaran
##entingan
##ugerah
##yakini
indah
pingg
iz
ikatan
induk
##ical
bill
##ashi
antena
dinyatakan
kucing
pengaj
administratif
##che
tokyo
digambarkan
1982
##etron
putranya
kesep
##yang
eric
tepi
jack
##bc
##adiri
mengangkat
champi
##eni
duduk
kepemimpinan
pagi
anc
pedagang
##hiri
##pas
##utup
gemp
arti
##eku
##ikal
bombyli
window
bac
menimbulkan
melindungi
##egan
ditangkap
kampus
sensus
malang
##ye
situasi
penye
sinetron
rok
munisip
37
##ebunan
mengakui
perpustakaan
aut
##ito
mencegah
##aton
##akh
putaran
subs
##alap
##ukur
##sman
perkebunan
lantai
##antinya
louis
menjalani
lum
##ster
##atar
dikeluarkan
##kh
south
vii
rekan
karbon
fiksi
##ungkapkan
molekul
peralatan
menghubungkan
##ser
inti
##antas
mundur
fen
##epon
tulang
lembap
##indungan
ditunjuk
las
##encanakan
setahun
fac
sudut
raden
##ifa
diperkenalkan
kepentingan
taiwan
##ux
tid
tert
##ilaku
##wakan
1983
aspek
##olos
pembun
##arak
##yon
##yal
mengunjungi
keuntungan
##ahatan
rot
swiss
cirebon
##etoph
terminal
##we
seluas
mini
lambang
menemb
mycetoph
##atorium
##40
kir
##ulunya
dinding
##ft
##ech
##tt
##juk
2020
##adu
dam
dor
##rav
##amah
##ider
jin
beliau
##til
##etan
berpart
daratan
##tujui
makh
angkasa
junior
tank
flor
pembunuhan
##akatan
love
sejarawan
menjual
telur
##egara
aksara
singkat
##romosi
##elakaan
pendapatan
prasasti
##ais
##lir
1978
pis
kecelakaan
windows
berpendapat
##akaran
thomas
beragam
pir
disiarkan
bung
pid
ekor
kuliah
anjing
permintaan
perlindungan
psik
blok
berpartisipasi
sekitarnya
pref
nap
diakui
1979
urusan
##vin
was
hadiah
##line
##eus
fri
##elur
##weg
tahunan
asl
colle
dibawah
taw
##idi
penemuan
ekstr
nen
diciptakan
##ht
##asama
terbit
konferensi
penerbit
bapak
pengaw
rub
##ontak
kamb
west
##wis
dimainkan
pajak
mong
meks
signif
cender
pasti
wafat
##itt
##otria
##arapkan
pelatih
meksiko
##ulusan
##lude
lembah
1981
munisipalitas
pesantren
dilah
kudus
##kand
psychotria
penyel
tamu
mengem
didasarkan
ahmad
wat
reformasi
memerintahkan
koleksi
75
lihat
ath
matemat
dimasukkan
tal
institut
##nes
##tod
fos
unik
publ
coc
##ings
##romosikan
400
harapan
##lad
##kah
anth
##lor
kristus
biara
dimaksud
##oi
##indak
##lima
animasi
aslinya
sepenuhnya
##lav
##aina
##agus
dos
##elan
pond
nektar
##ihkan
amb
ren
ditempatkan
moh
menghabiskan
sambil
##safat
dilahirkan
##pen
boleh
signifikan
##untut
cek
record
count
diser
pelatihan
show
##anjutan
48
menghind
beserta
menyelamatkan
semi
hukuman
fat
khan
##eam
##angkut
mass
mahkota
##ze
filsafat
richard
pering
medali
kertas
simp
##mati
##indung
wah
##ataan
meriam
tergantung
dikarenakan
menceritakan
champions
gempa
42
bata
nasi
55
perak
##egaraan
altern
kapasitas
histor
##otong
soci
##board
tong
##uhur
bulu
ky
##ektif
kesenian
dalamnya
perayaan
virus
yu
##tant
##osok
mengumpulkan
zona
##aminya
gil
pasir
hil
alf
nuklir
1965
melah
180
##lawan
polen
dinamai
buprest
##eder
##elih
##unci
makhluk
yus
zat
takhta
##ect
tour
ray
martin
harian
peringatan
cel
sebal
##indahan
melainkan
itulah
dl
##olf
##jemahkan
ungg
center
lir
##odi
independen
##include
max
kerj
mencatat
dprd
##angani
##asilan
##rak
39
eksekutif
##awatan
pengikut
instr
scara
##enam
mengklaim
##aftar
1975
##omotif
dipercaya
balapan
mars
bayi
bombyliidae
yohan
menentang
##tab
keag
panglima
##inginan
otor
kapten
analisis
tahta
hu
utsman
##ogen
perdamaian
diperoleh
skot
pahlawan
best
bil
labor
mempers
efektif
mengaku
rangkaian
dialek
##ario
hakim
menikahi
trop
poin
kematiannya
sebaliknya
tampaknya
ilmuwan
bertelur
##aram
menak
##imbangan
mengej
contohnya
kara
##11
##usul
label
berkuasa
onlyinclude
##pun
##bumi
##balikan
sut
scaraba
pendirian
kejahatan
semacam
lampung
melahirkan
##obatan
pew
pembuk
yohanes
##embun
golongan
gangg
komune
menetapkan
penjara
suaminya
tangg
##robi
protein
##dy
memuat
##buru
beral
seniman
##entrasi
bersenj
kartu
nan
sejenis
rt
##esta
##ahami
##ebaskan
menandatangani
siapa
ditutup
strateg
eli
sikap
isi
##ns
perilaku
cam
pon
sapi
cenderung
##organ
terjemahan
ruangan
##ky
skotlandia
xi
telepon
kump
terjadinya
asosiasi
##omun
berpengaruh
pensi
volume
fifa
rasul
pegaw
##els
##enaran
det
luka
1976
lomba
american
##alifikasi
bom
##over
bum
out
dibunuh
1974
##old
tir
##arai
menyadari
portug
##adapan
anton
part
diduga
mendek
##endalikan
##ancam
pesta
kamar
##pon
##onj
menekan
##isinya
persatuan
1973
##orit
##adai
polit
fe
kelapa
rumput
membaca
gul
setidak
iklim
saudaranya
lis
kritikus
kabinet
mont
selamat
terjun
##my
buprestidae
##ile
diplom
##esia
##erikatan
47
183
victor
aud
perserikatan
1967
ular
alum
1942
ayam
taj
pasifik
kre
mam
mengacu
lulusan
jantung
##ial
##ehi
lepas
##kes
##galan
belgia
mig
denmark
pp
has
penya
ditambah
##puh
elektronik
rilis
rahasia
elemen
ukr
##imewa
dipindahkan
ditampilkan
bob
##oner
rekor
teph
sant
menetap
muk
##ancangan
jl
pelaksanaan
lamela
marga
pelajar
1940
federal
berkat
##auh
sahabat
portugis
lawan
sap
menangkap
##inda
1930
##jen
one
##cc
##wn
##esmikan
##alian
##enangkan
##urangan
##onan
fot
bany
scarabaeidae
prot
##tah
1977
pembagian
drum
##mos
##usak
##ecio
##esan
pakistan
setidaknya
mengaw
bersenjata
gangguan
padi
tephrit
##so
amor
##aft
gigi
bertujuan
manch
cyper
kebun
yud
mir
yerus
punya
pemas
##toran
184
##etakan
1969
meneg
1968
##izinkan
alternatif
pembalap
markas
bertindak
reli
##gabungkan
skala
memperkenalkan
##urang
pegawai
nusantara
##eph
high
bogor
##inus
mengan
dekade
sys
##onik
konvensi
eug
##ujian
ditentukan
##isl
pemuk
diganti
##ush
##ormati
##arki
nenek
kesuk
pengusaha
format
##oo
##elilingi
##gaja
##tusan
##ture
yerusalem
arus
iklan
mengungkapkan
tes
palest
warisan
inc
nit
binatang
pemand
wajah
graf
chi
keg
irak
mendengar
kering
habit
##efa
panc
1972
##nas
##ukis
gua
##12
menghindari
real
siaran
christ
umur
berlokasi
##anggu
44
keagamaan
cd
##teran
kekerasan
dll
profesor
identitas
syarat
haw
sayang
1971
krim
##sor
1963
##ebat
kolonial
dampak
senecio
##eman
gabungan
ukraina
##ingin
tangk
1966
lif
dong
fokus
rap
benua
pbb
melep
##utip
gelap
dendrobi
penyebab
##tul
150
wangsa
dendrobium
##ilasi
##isk
##ahas
pondok
nusa
ortod
tephritidae
bp
##iny
syari
gej
jas
kedok
43
pemak
melint
menempatkan
nob
##bud
lubang
pengganti
##ekuensi
gand
berganti
prestasi
wid
terkadang
sn
##igur
purw
kid
penger
##idik
tarian
bilangan
bakteri
##ope
palestina
jen
adam
##entina
musisi
##ert
menyebar
1962
##rt
fu
##ophagus
##wisata
##imbang
semenanjung
seksual
##ancarkan
apapun
samb
master
jari
melam
##ekor
1948
menambahkan
##assar
kebebasan
belah
adegan
aspara
regional
isu
gerbang
mengakhiri
##anth
46
1949
hay
pemikiran
##emi
dilaporkan
philip
##idaceae
lolos
liber
stabil
rol
wa
##zah
izin
##thophagus
nyata
##tuju
##its
##ild
jac
##win
##vasi
minuman
##usat
##ungkan
norweg
banten
52
melaporkan
ash
1964
cak
##ajat
##wang
49
pip
##masi
pengel
basis
##cel
merd
agak
didapat
##dam
app
kakak
mongol
meluncurkan
onthophagus
memanfaatkan
##trov
matematika
pembuat
cac
##ops
##otaan
##buktikan
hiburan
##sesan
##gerakan
kasih
main
##vari
##gales
oton
roda
dinas
##enggarakan
pembukaan
dikalahkan
gent
pasi
fisika
asparagales
dipengaruhi
harry
##ajian
##aph
sinar
##num
##bih
nazi
sebaga
menyeb
menderita
strategi
tayang
##omy
182
peta
ear
sr
cha
edward
mary
##umpul
sawah
##angkaian
angeles
ya
1946
tipul
hum
kontrov
##sel
paulus
orch
fre
legenda
menyerahkan
persegi
section
hulu
cons
uefa
makna
system
##ym
politikus
josep
bencana
wash
neptun
##bak
##kt
serangkaian
bengk
sit
maluku
terbanyak
sind
with
##oci
berlin
company
som
bot
kekalahan
raks
riau
roti
salib
sor
nel
strategis
pangkalan
masehi
mengarah
##ganegaraan
norwegia
berlanjut
college
##nik
##obi
kualifikasi
franc
##ics
rambut
jum
menyelenggarakan
timor
pendekatan
pembawa
wir
diharapkan
##sin
##fir
ortodoks
temannya
aset
pengakuan
begonia
mengalir
ori
promosi
##15
##omunikasi
dimak
tipulidae
##elajah
tidur
perum
ritual
kedokteran
centr
62
gula
##tarik
##lig
lib
garam
65
pangg
kontrol
rw
makassar
##identifikasi
##mur
otoritas
lak
bukanlah
amat
##emia
les
wilayahnya
mengundurkan
##tansi
protestan
##ico
plas
balai
now
kumpulan
1961
baja
##alo
adapun
setia
##ancur
demokrasi
cop
ion
lip
agen
bagus
##vel
##efinisi
metro
##entuan
semangat
neptunus
adap
suriah
pasca
pengunjung
berpindah
##iarkan
otom
##arto
##oul
dius
pensiun
pencipta
konstruksi
akun
##sp
kepadanya
iman
##aktif
kutu
##yphi
penyelenggaraan
gugur
laboratorium
dipers
drs
duta
##ago
##erahan
akibatnya
53
perek
kedatangan
56
kunci
gus
menya
nu
pek
guna
linyphi
##fik
linyphiidae
##ografis
sound
patr
mycetophilidae
##ayangan
##uto
jend
manga
##vd
##amad
##icu
joseph
pariwisata
bed
tex
bersaudara
jean
senapan
##inggalan
pergerakan
mataram
##iano
cad
##asakan
kendali
royal
memberit
merdeka
##enjak
##waktu
mendes
koord
legisl
sci
kedudukan
kain
dagang
brig
gajah
sehar
ancaman
negatif
##lywood
kg
atap
kus
asisten
target
santa
konstant
mengirimkan
sari
##ise
mengajukan
arke
mengingat
##ations
##utkan
##ovasi
##16
57
semenjak
time
##ebaran
diresmikan
pay
meja
jad
green
ec
marah
##ullah
##baiki
1947
meta
sengaja
kesepakatan
diaj
menemp
dibutuhkan
penggemar
sinyal
cas
komik
region
##etus
setuju
##sih
64
bergantung
das
north
tud
raksasa
##ular
seekor
##edral
masakan
won
menghentikan
1920
1958
anime
##ety
##80
pilot
penjaga
perannya
gh
##cha
washington
##presi
meg
disney
dec
diatur
county
tersisa
brit
ox
menambah
hall
portu
live
disk
haji
##awal
surya
##oft
##ning
hir
lelaki
parah
mid
##aul
liter
kank
sewaktu
berdirinya
##asihat
##agon
##alik
1959
otak
##ague
lirik
##str
kard
istimewa
tuk
##ahit
suami
terpaksa
portugal
##ibus
keenam
##iannya
menjelang
diyakini
##abeth
saint
oks
##atukan
kesalahan
##edy
##sinya
infan
permais
66
teh
##ily
dikem
memasukkan
terlebih
terkem
dh
##jukan
kesulitan
##cus
argentina
mengisi
pameran
dias
##esa
##ambi
eksped
##urt
pelunc
##antikan
##awancara
kehormatan
serbia
papan
##ekh
prefektur
peman
biji
terbuk
ditandai
##nia
serv
dipanggil
bertambah
dal
##aksana
rupa
##ektor
lemah
samudra
multi
invasi
rancangan
##iaan
membayar
mikro
cita
##efinisikan
kesatuan
krisis
pemakaman
pasien
disimpan
kamera
##inci
##uck
saltic
ditujukan
susu
##imum
salticidae
terkena
god
normal
halnya
##sion
kaca
dioperasikan
kepadatan
##apus
corpor
terbaru
que
keinginan
dilanjutkan
59
##esu
soekar
jose
terkemuka
latihan
600
##agan
bij
hand
terbukti
gejala
##erto
##anggan
##iapan
spek
ibadah
von
##18
medis
ditug
##tures
anggaran
memerlukan
peneliti
##ekutu
disusun
##ren
membintangi
##tag
##14
menuntut
##ambut
##agama
memperkuat
malah
##19
kanker
daniel
micros
batal
ret
berangkat
usul
kont
06
will
pemerintahannya
##13
##ulum
berjarak
##ompet
perahu
##ianus
ditambahkan
##awang
cocok
bios
sebagainya
##lukkan
padat
ekspedisi
##ayat
fenom
tertarik
##umpulan
##antian
manajer
02
##ianya
##ustru
supaya
menyerah
dimakamkan
sekelompok
brun
##ormat
seng
stev
online
##ugu
francis
justru
73
risiko
otomatis
doa
aer
##turut
persetujuan
##ism
##itori
rup
##entar
mengenal
material
penderita
kandang
##faat
sken
##aca
club
##erjakan
menyimpan
179
##wanya
##entangan
##ugerahi
##atanya
utsmaniyah
gem
perlawanan
##ink
metrop
##och
penyi
damai
perkaw
associ
partikel
rac
##ates
peperangan
kenyataan
kakek
pant
aleks
jun
qur
##ive
menu
##rys
##rod
bakat
##rama
tiang
diadopsi
fab
nig
berkel
##elasan
perawatan
jej
smk
setara
##esarkan
##romy
##ikh
pangkat
bervari
##erankan
mengenakan
##erai
##guna
##unjukkan
lokomotif
nav
##wati
86
##upu
dikelola
surv
fase
jati
pengobatan
##ano
##ilangkan
permaisuri
##xi
##oka
kalender
sesudah
murni
54
vo
pendeta
beragama
audi
##eck
72
berturut
selat
komb
##aksikan
mayor
##aborasi
tembok
dibantu
##purna
lembab
58
pemukiman
melintasi
cipta
pertanya
kabel
memaksa
##olitan
1944
tertulis
kepolis
voc
##odo
bervariasi
##jah
diterjemahkan
aug
institusi
jema
##ony
banyaknya
kehad
pencarian
##afs
##17
biz
diw
##ebo
##uy
kepolisian
alb
lump
lor
##under
records
budak
fal
riv
1957
domest
rusak
85
dika
carl
pangan
sosok
wales
mangk
##ambung
beda
##oshi
line
integ
99
teknis
tomb
riset
##ifera
mempengaruhi
infeksi
##rib
warta
palembang
tabel
penur
jet
##onya
##ogle
diman
dosen
120
##ajuan
##oyang
1956
detik
geografis
menangani
##zoa
##ahaman
selandia
menyampaikan
##oe
sukar
menyukai
pendudukan
##idasi
dipert
leluhur
kerjasama
seber
sejauh
menjadikannya
mulut
sepeda
siang
shah
ditugaskan
balap
madras
raf
##eria
laks
shin
melambangkan
##fil
cinc
dipandang
pemberian
cil
kro
1941
pertanyaan
komposisi
halus
direncanakan
05
mengin
##omet
league
mahkamah
##work
##oa
paru
ci
##opter
menurun
##aharian
federasi
google
##uhkan
pura
variasi
minangka
peninggalan
##atalkan
terjual
##ejo
hasan
paroki
##inspirasi
konsentrasi
jus
sint
##olehkan
bib
ulasan
kok
young
##unjungan
debutnya
akar
mempromosikan
perkawinan
1955
organik
wib
##inggi
hill
kotak
dvd
##ahl
armenia
kesuksesan
roman
##ike
bunuh
berse
fakta
pokok
sman
teologi
maya
mineral
meleb
big
orchidaceae
jat
memec
##truktur
pse
lemp
abdullah
dianugerahi
cairan
##atannya
timbul
vit
##esti
keyak
surakarta
diperl
sidang
sop
##ision
penulisan
wajib
produsen
minangkabau
lampu
kekayaan
penurunan
kebenaran
restoran
##off
miskin
##rut
##elop
cip
keberh
07
fran
liar
melepaskan
##adaptasi
##ult
tant
terdaftar
klan
formal
microsoft
rapat
##fan
sosialis
monumen
ketuj
miconia
angkutan
##hip
pasukannya
rs
ditempuh
julukan
dayak
gay
yeh
##wu
harta
tech
kardinal
jon
menunjuk
kemajuan
##yr
bawang
senang
definisi
dipasang
##irannya
##endiri
persi
cucu
office
##ihir
simon
fox
diterapkan
box
klor
hasilnya
03
mengap
##ole
investasi
##ele
letnan
berkurang
kacang
##lu
##aritas
lab
mena
##iraan
internal
corporation
kega
karyawan
street
keselamatan
08
teror
jim
htt
ruk
xii
adv
##uta
banjir
800
nic
tropis
dikuasai
dijalan
##ajikan
##anam
manis
varian
legislatif
tas
pengelol
##bus
##ogo
purn
##elang
ketujuh
##ihi
pemberontak
202
misteri
domestik
letaknya
63
menyanyikan
jurnalis
bersih
##idah
memerankan
##egoro
dilantik
frekuensi
tentu
tib
##amana
persamaan
modal
##umpai
1943
##ihatkan
ratusan
76
paruh
tetangga
katedral
soekarno
efisi
batavia
menerap
konon
leon
1952
##migrasi
adaptasi
##olan
##andu
are
eugenia
##emon
74
##led
##chen
insiden
peluncuran
uji
mandiri
##ova
bod
dri
produc
penari
mendekati
terang
##obaan
##tap
kerap
##agar
berpikir
##ilo
kunjungan
back
##ajahan
liu
pros
wes
kebi
batalyon
95
pengurus
diaw
imp
1939
ss
bersatu
pengelolaan
hancur
digelar
dimaksudkan
##our
menghar
##antau
##lavia
konsul
tenis
sains
##upsi
smith
dhar
##ition
billboard
disajikan
persiapan
##mann
##uluki
membedakan
tin
##oides
dieks
pseud
semin
berbagi
dilarang
##ball
bit
personel
##ull
##gapan
games
kelak
menandai
fenomena
wartawan
##aster
##adiyah
##iru
maksud
serius
77
betina
mengeks
##aring
abb
takut
1954
##ominasikan
##adar
##app
elec
bioskop
##anggar
##adan
chann
patri
jurnal
67
hany
memahami
kehadiran
beta
##antum
dosa
perbaikan
ribuan
konteks
##itungan
peluru
anal
pecah
news
semula
hidrogen
alun
segi
naga
04
tahanan
mengor
##adaban
mengganti
##rab
hektar
kajian
penyimp
eliz
infanteri
pikiran
##elapan
sempurna
shang
##irus
bass
mengant
membela
##upai
house
alexander
organisme
##arankan
##impunan
distribusi
keyakinan
##cher
makin
cast
level
kalimat
hendak
##intai
penyair
cincin
karakteristik
dasarnya
menerapkan
cos
##ilikan
nada
bea
tap
rumahnya
##araja
kandungan
juri
##tensi
##eluk
##ewar
pungg
68
universal
##ross
berw
dna
##ering
##oku
skenario
platform
veg
tanggung
syd
kebakaran
citra
roket
seharusnya
tegal
jantan
membahas
kolam
statis
kp
tuanya
ix
dulunya
wawancara
##ville
memastikan
##fr
##zar
dengannya
mom
dides
##onjol
peradaban
jepara
dinyanyikan
09
baris
##oyo
boe
mekanisme
hidangan
##xia
boh
keset
##sey
kurik
bug
fad
##inga
##ivora
1953
##adat
##lon
##alas
##elajaran
nir
paman
wu
wujud
##otik
kang
akademik
88
menjawab
andr
mitologi
##rip
landasan
membagi
tertutup
chang
ditinggal
dinominasikan
##ublikasikan
dukuh
##lines
menggabungkan
##undang
percobaan
##esaan
karen
atmos
##edonia
##oper
babi
golden
##pit
baku
dang
budi
memenangi
alian
param
mengoperasikan
menurunkan
kadi
pendah
pelanggan
milan
tahunnya
princ
british
yg
jemaat
kegagalan
madrasah
##ekaran
ann
pelindung
##antium
bambu
koran
##ayar
berkisar
menikmati
##andra
rudal
bund
metal
syah
lingkaran
##edak
good
ling
memanggil
diperint
ry
##for
##ms
menunggu
sydney
poales
##ahi
kombinasi
##inat
kw
tarik
penjelasan
##panjang
##asana
berjuang
sunan
tat
##etika
bask
##iksa
melarang
##inder
##ion
##icus
manchester
##oja
##onstr
##field
hon
resep
hus
herb
lomb
##tel
##66
##ald
##jarah
##edit
saksi
chart
wayang
##agen
menonjol
berkumpul
pembelajaran
dimanfaatkan
hamil
wi
pertam
alli
iso
jadwal
mengelola
berkas
##hu
##otanya
religi
##kom
pedang
georgia
69
muara
##hire
dicatat
radar
institute
##esuaikan
petern
tuduhan
bra
##ure
year
saudi
kekurangan
tubuhnya
elizabeth
97
##his
##ame
permas
od
##row
menghadiri
coklat
menyusun
penyebaran
chic
panggilan
lurus
kepemilikan
##kat
memori
tersendiri
evolusi
berbahaya
nagari
78
perumahan
melebihi
airlines
##tivitas
beat
dak
harinya
mich
referensi
##ucapkan
ibnu
##hatikan
channel
boeing
##van
##arahan
karl
berencana
##onfir
##ekatan
rumania
dibesarkan
##embahan
##kuit
metropolitan
##inis
##asifikasi
society
##mp
pandang
##annes
1951
##ello
over
##ampur
mendarat
ditur
doktor
rasio
fried
##arya
memisahkan
uc
atlet
sesama
##hai
##elaskan
kanak
nowiki
##asari
##tha
hard
imper
##regnum
ladang
wall
perman
susunan
minum
##utasi
kritis
uap
##med
##iku
##anja
kue
##encanaan
merekam
mempering
##ski
##wara
penak
times
penerima
dijuluki
beralih
jay
porifera
bersaing
##erson
she
memperluas
gugus
menerus
rama
bulat
terbunuh
berpusat
kurikulum
diserahkan
impati
how
toy
batuan
##len
##inaan
mulanya
keberhasilan
fav
jr
rod
##kit
##iaceae
berkompet
life
##ansk
disertai
##ady
sadar
impatiens
##br
perencanaan
##lie
mosk
disana
##idat
usai
front
kebiasaan
jung
##fikasi
siklus
##elihara
tali
##akia
musa
##isisi
juru
cla
pemekaran
adiknya
kolonel
paket
mode
##adw
jabatannya
sele
kuala
pejuang
je
##inum
mengendalikan
ال
terhubung
tj
##mal
visual
association
gp
kaz
sentr
athena
96
##etu
##trans
rawa
petugas
finlandia
##ador
est
berfokus
beng
chrys
##ijing
bayern
bersejarah
gard
wisat
pakar
##apahit
bukunya
##rahim
ic
subregnum
##tir
##alisi
baga
parazoa
youtu
asy
biologi
majapahit
memindahkan
aktivis
##zer
##vo
akting
tra
belakangan
ced
mons
##mon
syekh
diturunkan
wisatawan
##wana
maz
larutan
berperang
power
instrumen
##bl
##ever
cua
mala
kin
atmosfer
41
##sip
##oso
menekankan
##agn
shan
motif
semesta
##sburg
perbu
##turkan
colum
mov
##ahal
merc
ste
250
port
bara
pengarang
dijelaskan
##sc
##ister
pictures
cend
uu
remp
mengam
forum
##onda
##itr
moral
cantik
dimensi
perekonom
menyerupai
semasa
vik
##ewarganegaraan
87
jazz
##zhou
gerak
700
oh
penutup
yusuf
##agu
dikaitkan
##wijaya
jahat
pinggiran
kekh
##onald
sesungg
menghormati
tump
potongan
98
berkewarganegaraan
manag
dinam
160
01
klaim
genre
pemegang
derajat
aliansi
besaran
petual
rektor
kai
memandang
##onegoro
dipegang
##uke
tamb
kesej
tau
##etas
keterangan
berkompetisi
##etis
chen
##arjo
proto
##ecil
pembantu
sent
penampil
pertar
permasalahan
enzim
luth
##sea
sesungguhnya
##tempor
shi
##fiah
##amar
memperbaiki
ent
lumpur
gib
##elat
pesat
gran
muhammadiyah
##alon
perasaan
##ancar
puteri
mek
##tle
mengejar
cadangan
yon
persa
##aib
##ohol
membuktikan
marin
ile
teritori
pemerik
kamu
permanen
sebut
aq
##rok
pengamb
##onim
kerabat
yan
##misi
khal
permukiman
51
qing
##fe
berguna
pemer
##trin
kri
##ardi
infras
84
rena
kadipaten
pengend
##onc
##ahana
menempuh
rhod
pengambilan
muatan
kontak
diperb
bizantium
menyusul
berhak
ujian
awak
curah
natal
au
##isahan
helik
##ru
menutup
##ginya
nantinya
gener
mada
putera
tit
pemahaman
anggur
leh
##andanya
anggotanya
##untutan
perekonomian
diing
jena
##ies
kadar
penambahan
surga
habis
kub
cup
konstantin
##ous
operasional
kotamad
##akm
beijing
pia
menahan
pertarungan
alas
lambat
##tip
178
##jikan
mengatasi
kurangnya
mengembalikan
##ajang
##anggaran
##barkan
##ujudkan
tiket
audisi
dki
paku
pemro
##diakan
ibrahim
##ridge
pasc
##ology
##bour
##luan
arsitek
menegaskan
darurat
menyebutnya
disediakan
92
##adaran
##une
basket
menyimp
##sari
keperluan
eth
tay
##nah
##angkatan
tent
salvia
spesifik
menjalin
cuaca
##enya
road
fit
koalisi
##elam
formasi
berpeng
terluka
properti
perkiraan
1938
samar
victoria
layak
ditolak
f1
from
##arin
konten
##unting
##ujung
##jur
apost
##ahap
rezim
kandidat
##kitan
##oksida
jangan
177
araneidae
punggung
asasi
za
membawakan
##inter
perunggu
gratis
bermula
##kp
youtube
##amer
pelukis
koin
kedalam
kotamadya
memicu
tantangan
stan
pram
ketentuan
pribumi
sirkuit
munculnya
way
romb
pengeb
topik
menyetujui
sasaran
##ense
erat
nelayan
interaksi
chicago
spiri
disetujui
network
kenn
klasifikasi
otot
korupsi
berdarah
singkatan
kasar
team
christian
agromy
keraton
##ontrol
penerus
82
seks
##atria
saraf
mengu
pinj
tergabung
##ors
83
nick
##orf
##itter
che
##elm
##das
##baru
##orasi
##rov
wood
##eme
berta
##egor
##udin
diminta
terinspirasi
cho
##suf
arch
eksper
letak
meneruskan
mitra
##ges
pengawasan
1933
hop
##ury
##oll
penangk
##anjangan
##rium
##ogon
persah
rempah
1918
mengusulkan
ug
89
girl
mim
##rof
isma
walau
spec
broad
allium
that
pemandangan
##nie
vokalis
##ekolah
dokumenter
arena
dikelilingi
flu
1000
badai
##yd
##iao
lamp
persahabatan
rang
##omend
sho
rantai
##aro
##angnya
##embunyi
lapis
sq
kru
sai
mahal
penganut
cyperaceae
keahl
##rey
bela
bagaiman
angel
nad
jagung
##estor
cc
visi
magn
cre
memengaruhi
##je
##istribus
bulg
blu
albert
yuan
##inah
dihuni
##enjang
pelaku
sisanya
rid
post
dijumpai
merusak
dream
sulung
barisan
##ign
##eff
madrid
bait
murah
tambang
utusan
dp
sesi
##ilitas
senat
dijalankan
py
##ois
bunyi
kosong
chir
east
##ichi
indo
kiner
pengas
akb
##sky
pengertian
##eling
1935
##gam
selam
tangerang
pelanggaran
mulia
##ahter
berangg
filsuf
hein
direkam
kesadaran
madura
##ampa
batak
##embahkan
130
kawan
tuntutan
aur
memperlihatkan
##arga
nobel
yam
berharap
lemak
anna
1937
gat
##otakan
helikopter
cin
puc
##ambar
dipergunakan
jenazah
baju
gold
penyimpanan
pembel
ternak
dimenangkan
conc
galaksi
infrastruktur
wad
##olahan
kontempor
kastil
opera
general
dicapai
lord
putrinya
##ahteraan
##eti
diisi
merayakan
perhitungan
nak
##lakukan
wadah
##itia
perikan
doktrin
nil
soeh
kontribusi
dc
indeks
shar
persekutu
monarki
trip
erica
pengec
korps
kesejahteraan
tk
##ariat
aneh
kontemporer
pedesaan
berleb
konsili
pewaris
wik
mengizinkan
spr
hik
psikologi
##gas
##ogan
anat
##buhkan
lisensi
yun
##obatkan
##ungkap
hawai
kristal
1936
##antis
fem
##etes
##otan
cem
konsumen
riway
##plin
##opel
atl
sdn
tembakan
him
mengajarkan
perikanan
menaklukkan
membentang
gan
brand
operator
muka
seoul
awan
bre
kotanya
##integ
makedonia
79
##yana
ekspor
ds
##ject
kembar
zhang
tenggelam
ever
kip
##hol
terlepas
logo
herbivora
bertar
hollywood
pengamatan
japan
mengadopsi
karet
##kota
paras
##akmuran
ledakan
alm
##cl
server
##enalan
suasana
transfer
bulgaria
kewajib
kandung
##eteksi
dipisahkan
menghilangkan
##alifah
penu
sony
pier
##bulan
penyiaran
kroasia
menampung
##omer
pastor
persekutuan
##put
indra
pembebasan
tamil
hem
##gu
##yam
##elle
kebangkitan
##rogen
arya
laksamana
sekuel
direktor
dihancurkan
##erapan
komod
pup
cle
##tuanya
berulang
kah
##bach
begin
##omyza
jambi
tahan
lazim
bagaimanapun
texas
hebat
krom
ming
legend
virgin
konserv
kambing
ari
menyum
##tens
petunjuk
diselesaikan
beranggotakan
grav
##zon
musikal
dimakan
mach
petualangan
pont
perut
dipas
disamping
bertahun
historis
##ermin
##irah
kontroversi
kutub
mud
##hat
datar
penerbitan
hanyalah
bani
eksk
##inyur
hitler
hut
penasihat
subjek
##onakan
gamp
mengab
##ome
pengaturan
besarnya
##ahasa
carol
tul
##onaris
##odend
down
seleksi
##rie
tajam
spe
##bor
##anon
kerangka
diserang
##onfirmasi
ditinggalkan
khalifah
open
##itch
cik
bakal
hang
berawal
##imer
mengisahkan
daud
##iji
dominan
pemeriksaan
##elli
##urah
ks
menemui
tebal
membebaskan
pons
maur
keterl
reguler
keponakan
##port
berani
##onsumsi
gm
##olasi
berdua
##raft
kakaknya
dibaca
##kripsikan
zhou
moyang
gelandang
##baceae
konstan
ster
maha
serat
perlahan
terakhirnya
mengapa
bint
jumat
prusia
penampilannya
harv
meyak
##migran
lakukan
gram
fabaceae
ditandatangani
berlayar
mengajak
chel
##istribusikan
##inia
kuba
marc
perbuatan
cetak
##antang
foot
keadilan
##abad
persyar
ericales
apostolik
rog
1928
pembaca
bid
##ando
riwayat
##kol
dibebaskan
radiasi
karenanya
teor
robot
##olia
camb
pendatang
cedera
##usa
kinerja
ketat
insinyur
white
orde
##askar
electr
##zidae
mengancam
##okol
##opia
kebangsaan
##angkutan
##fo
disampaikan
telek
karangan
md
##sial
##edar
tukang
lest
ferr
##alanya
spor
amir
alamat
williams
massal
dinilai
1929
##ats
pinjaman
kle
##angkal
kedalaman
kamboja
##artikan
dipaksa
##lamasi
dap
tipula
menyebarkan
nasib
brah
penjelajah
friedrich
gong
hindi
##tek
sentral
apple
gund
kekasih
coun
techn
sayangnya
jab
yug
##arkas
mitos
zi
##hy
sens
glen
rer
##als
natur
night
170
##ijen
##ason
bursa
minat
bond
##gy
##yai
emosi
padahal
menginginkan
dicetak
liberal
hun
jes
##ilin
misionaris
##ido
kans
##sy
laga
##ohonan
ww
penyerang
perkotaan
spong
tipis
bertarung
jenjang
tag
##iminasi
america
##adwalkan
gemb
##bin
pk
arkeologi
melancarkan
rutin
##untungkan
hok
##lop
gud
didominasi
mempersiapkan
110
##tat
island
hilir
get
##iaman
soeharto
pasang
sumur
alias
##ime
fabales
seleb
pengembang
soal
##eau
cro
rumpun
##imbangkan
belahan
##ric
##san
ala
##pres
bambang
toba
sabtu
##bat
##tipe
##ots
##ote
elektro
respon
heter
penaklukan
diatas
fern
berup
demonstr
samudera
tibet
persyaratan
keman
##rin
##zen
prabu
kelamin
diperankan
sehat
truk
ponsel
nasa
marinir
sia
##buan
membant
nug
penerim
rombongan
ms
penila
ted
rab
cab
kediaman
##olakan
berked
ekonom
dihentikan
##odes
##atuhkan
##esco
perform
##back
jamur
##zan
1919
##dian
temper
andre
dolar
##enuhi
##elia
mengkr
##ancuran
brown
amal
marx
umar
berupaya
plus
pengep
yi
senin
##akau
##lusif
mengundang
unggulan
rach
sungg
home
lud
menyaksikan
##ware
##elai
##ebatan
pengolahan
corn
rc
statistik
1934
kudeta
diplomatik
hier
cokelat
otonomi
pengir
http
1914
mobile
didefinisikan
##sedur
agromyzidae
memberitahu
##aktor
obser
kepa
dibatasi
##ters
batik
undangan
cair
sakti
championship
oliv
tawaran
##rain
habitat
hawaii
bekasi
rohani
ler
##mond
prosedur
##ambatan
subur
##well
##eno
berga
kolom
##iew
##ehan
dibawakan
favorit
##ukakan
berbun
hij
malik
gurun
menembak
solusi
selaku
dipec
intelek
##olas
segmen
alumni
mall
seluruhnya
hubungannya
ale
sex
kewajiban
dibeli
keahlian
lengan
##angkau
nah
myrt
##umber
##enting
bermarkas
prix
maksimum
jejak
pc
penyedia
ayahandanya
##ution
ford
##ose
editor
prok
125
##ophia
siti
##asemen
menyarankan
peternakan
penilaian
##track
##irman
##etail
1932
beban
series
jones
orig
petrus
bbc
inisi
disiplin
fosil
turunan
bik
##ikkan
france
berpas
mengganggu
manfaat
##erp
fred
pengacara
##adron
##ison
ditak
##tribut
kag
arist
##oboth
mengawali
garapan
##25
##irahat
##upan
##uting
arj
dijadwalkan
arts
##eliti
##yle
1900
pengiriman
pter
jong
##arut
melakukannya
coba
viii
##etapan
cross
pembangkit
gender
bell
tingkatan
##filman
sher
habitatnya
chan
bertentangan
blue
survei
malaikat
900
figur
pod
##okerto
##entasikan
posisinya
kenaikan
primer
mengusir
mohamm
francisco
##iawan
##osit
##empurn
bahaya
kanal
alkohol
sampah
##enangan
well
ditahan
##lang
##mah
##owo
##bel
##osof
hadapan
sore
penerimaan
oscar
jud
laju
##formasi
##amu
bertu
pertuk
ges
kedaul
pengajar
seniornya
mp
membatasi
##owongan
##ier
fraksi
transmisi
kart
##masin
key
bri
fur
##ett
##tre
myrtales
pembinaan
ditarik
kamila
pita
##ografer
mendat
dihukum
meluas
terbakar
##osaurus
pelayan
ach
lamanya
##awak
alur
chironom
gon
##andalkan
nasionalis
publikasi
kay
mencuri
pencaharian
biro
brunei
akb48
wina
dibedakan
##gabungan
##astian
pati
ye
rong
##du
pengajaran
state
##achus
penyelidikan
pelaksana
lari
##bara
##bawa
menghilang
##engkapan
##rol
kecantikan
cs
puluhan
kreatif
samuel
##arta
jendela
##fl
ditaw
bala
mental
asian
first
##zal
##try
potensial
pidato
##sik
telekomunikasi
hipot
deg
meyakinkan
jama
frag
##onso
oposisi
berak
barcel
kredit
work
##ederasi
1924
rukun
lanka
##ulat
kurun
yakin
berkedudukan
##uz
pendar
1931
ner
##ng
heart
##akur
ketiganya
lautan
##buruk
project
panen
##idenan
##ativ
##estarikan
yosh
dw
yugos
phy
code
##ulik
palsu
eksp
##pansi
pengund
175
dialog
##ette
gambaran
pint
sti
polri
harfiah
larangan
1927
menguntungkan
konstantinopel
pit
##dik
176
terendah
ark
##ribadian
diawali
human
beri
union
sayuran
semip
kabur
diadaptasi
aus
ded
hantu
##alai
wong
bertempur
kekuasaannya
##zhab
fant
who
##abah
myan
buj
##ix
teratas
steph
chap
pengukuran
temp
konfederasi
ganti
girls
fan
bari
##tivasi
rating
##embuny
soundtrack
seragam
menyanyi
##jad
##irat
merancang
ej
##zu
1922
panitia
service
kob
##bek
diab
kepausan
barcelona
got
neur
jumlahnya
refer
bertahap
hung
perbandingan
1917
bapa
daw
pemasaran
pujian
##antai
peru
1912
salam
1925
found
gang
##esel
dipublikasikan
turk
develop
dada
##ute
konservatif
piano
##epung
ideologi
kerug
penjajahan
##roid
depok
diskusi
##ulaan
central
naf
terdekat
great
melanggar
berharga
naungan
pengepungan
94
##engarkan
perilis
mengidentifikasi
myanmar
dun
lebanon
runtuh
##ulihkan
##sediaan
banjarmasin
monster
bersekolah
dinobatkan
ekspresi
##unculan
##ekerjakan
bertanya
micro
komoditas
water
sempit
berkari
terancam
astronomi
diizinkan
penggabungan
filosof
spiritual
shanghai
##abarkan
cand
yas
ditunjukkan
minoritas
cao
##iringi
sandi
##tatus
punah
kosm
dendam
diletak
leher
keterlib
row
penghormatan
yugoslavia
ll
##ako
dikenakan
##eto
trag
##owakia
tsun
plastik
##bangk
bentuknya
basil
istan
chili
sky
deb
langka
##ative
berdekatan
johnson
##erba
resimen
diajukan
##zy
akh
imigran
##aruan
guang
politisi
##nai
##egasi
##uban
call
bour
##iliasi
##sium
diperd
mewah
##vis
memecahkan
peranan
##ebak
saleh
kli
sha
##erse
indian
##adak
pembuka
ober
##ław
theod
fair
diameter
diletakkan
##aten
konsumsi
menggelar
audio
##orejo
deklar
pentingnya
engine
commun
pisang
genetik
##rian
transisi
1926
kerugian
##eu
domba
bergelar
##ittle
bub
fon
town
hangat
##yaran
berla
bima
alg
hib
##ilm
kedaulatan
wilh
mandi
##lok
tanggapan
permulaan
##oj
##sm
##osari
popularitas
140
rumit
ceo
saf
soft
mn
memeluk
paral
andrew
##raham
protokol
nip
##ody
##risten
abadi
ikon
pertimbangan
heinrich
##hum
wolf
##bk
waris
konsisten
1923
trin
marie
revolusioner
jel
heli
demak
dikarunia
berkarier
rentang
ther
kolomb
mewujudkan
antha
wol
##usiaan
frans
pertambangan
##ogr
pertukaran
anthaxia
ramai
musiknya
sund
##orus
menju
point
kelu
anne
dini
pemakaian
##ther
berlawanan
##ble
##opa
otto
kuasa
leo
mengkritik
lit
ron
wew
##lasif
##aptis
campur
gampong
cambridge
keangg
berny
standard
bangun
cyperus
##ars
perfilman
mendi
menganut
wei
kedelapan
menari
kepribadian
tabung
juniornya
##ebook
lombok
pembunuh
columbia
##pura
keindahan
##yid
berni
##okh
malaka
##reditasi
flores
bersik
sensor
habib
bosnia
##ebus
menyajikan
##itmen
kediri
temperatur
pendaratan
hai
under
bach
edo
##atap
##ihatan
rio
memperkirakan
pemul
arc
setelahnya
tugasnya
pere
adil
kompas
salat
mengorbit
menanggap
##gunaan
menandakan
##ihara
dihadap
urban
bangkit
penangkapan
hans
pla
##pons
dharma
##ishi
ragam
mendominasi
perkembang
pelayaran
football
##graf
direktorat
sihir
##tions
##ecahan
rumus
singa
##press
atlantik
##indo
diceritakan
rekannya
sawit
jing
##pus
##gawa
comte
ditingkat
pedalaman
perdebatan
impl
head
chrysoboth
kubah
bengkulu
berniat
chrysobothris
merasakan
kerusuhan
kanon
scott
saran
basa
##ijan
intelektual
sach
ceko
gall
##sional
diraih
kapit
pembakaran
obatan
##hard
tingginya
magnet
##earch
berkunjung
space
abs
doug
rand
memuji
prem
pengamat
dikunjungi
dihubungkan
1910
##pin
kevin
menuliskan
##sihkan
kup
tembaga
salinan
gog
mengerjakan
idol
otonom
priv
arthur
##wig
##untuhan
##ileri
152
dihitung
##gro
pembayaran
jeff
baptis
##uit
terpenting
dihadiri
kemanusiaan
fm
##gon
patrick
madi
##icum
terikat
sepasang
abraham
tikus
perbuk
##urch
mengangkut
sepakat
##agia
menyuruh
deklarasi
villa
merencanakan
penemb
##ift
research
putus
mengelilingi
map
1921
##andria
##opuler
perluasan
##akum
##uts
kit
menyimpulkan
kennedy
akrab
sard
melaju
gerej
wars
jalanan
mingg
melatih
cerdas
domain
##otor
bau
dragon
chironomidae
pengungsi
sungguh
##uransi
##erairan
joe
pemisahan
menyus
ish
contr
tampilan
tebing
semiperairan
cen
##imia
boneka
##odendron
##trum
ilah
yur
##akna
persaingan
praktis
cib
menger
##osek
##elahan
##icon
biografi
force
terowongan
disusul
busana
fas
arif
timnas
maksimal
vas
##iai
spir
disukai
##ente
tris
kolaborasi
twitter
mewar
dog
##bay
train
mazhab
bernyanyi
sepatu
premi
artileri
##lasifikasikan
kyai
dihapus
##ualitas
russ
bercerita
bimb
##tung
apal
usah
augus
www
baj
buat
##ector
ui
agreg
clark
s1
terapi
##ule
##uci
sejati
ball
##entuh
1913
ismail
sav
ketimbang
pilk
wilhelm
##band
menolong
##urai
diperbolehkan
sansk
parkir
diwak
##kau
berlebihan
seter
squar
sanskerta
napol
disahkan
berhadapan
fisi
mengikat
bersalah
oc
pengisi
romantis
letusan
##uwangi
jajaran
kursus
minimal
salju
astronom
kriminal
dikaruniai
boc
zain
ekspansi
nin
##ekusi
banglad
berjanji
pustak
kuan
##iler
ambon
fly
berkontr
emb
asalnya
ai
keleb
berkarya
##ordan
##aluasi
jackson
seberang
hero
perbukitan
##astr
##aktur
manado
bertempat
mimpi
doc
padanya
memf
diusulkan
##ides
menyatukan
membran
sampul
azerba
##likan
sutra
banyuwangi
##ebob
alban
boj
memotong
setinggi
kekristen
napoleon
bicara
ern
alp
ketak
religius
chelsea
##anus
##odifikasi
amster
##ency
pendidikannya
syam
sponsor
tepung
tony
rent
review
mcc
##opogon
bermakna
##ingrat
keram
dibatalkan
gitaris
amsterdam
atr
##ahb
##oser
spin
asteraceae
perkumpulan
studios
bangladesh
##60
radikal
rhododendron
apalagi
##ukim
penal
sampel
mempertimbangkan
nev
bumbu
mengawasi
card
vill
terdengar
127
spongebob
clo
##erminkan
##idiki
kompilasi
##ques
paham
pengendalian
lanjutan
wild
kekristenan
daring
##kt48
##sesi
seputar
dipenuhi
xu
##ampingi
sekadar
your
finalis
penyelenggara
setan
syn
dikendalikan
minahasa
mens
stephen
sarang
##tunya
laur
skand
mengukur
meletus
sekunder
juan
azerbaijan
zo
##ungutan
##odera
##ontalo
penutur
janda
rai
##lot
menud
penyerangan
##dut
##ebes
mendalam
membiarkan
panjangnya
##awatir
##inf
##asian
telinga
##zuki
ill
menunjang
perisai
miliknya
natrium
tidaklah
##iteria
bendungan
nol
akurat
105
kontestan
pokemon
##aian
diundang
##epos
kutai
pm
##ery
bersedia
realitas
robin
diinginkan
peluang
##tive
ritus
intelijen
slam
pelop
gramm
liang
##ahara
keteg
light
serang
litur
gading
##itanya
memberinya
matius
lukas
##mae
asterales
libya
fun
delegasi
sriwijaya
##ated
penerapan
memperhatikan
little
##orak
168
kanton
##ane
##akti
neo
unggul
pipa
ditingkatkan
diken
##inium
meningkatnya
antrop
venesia
khawatir
membawanya
dibubarkan
taylor
ax
##top
##emik
159
##andingkan
euro
gorontalo
runner
literatur
##oor
kapan
mant
##enz
berakhirnya
pinggir
kk
##ways
venez
dilindungi
baterai
mingguan
dance
penyeles
##onto
##endo
##ewaskan
membalas
gig
##akati
florida
efisien
mum
slov
honda
meyakini
##mir
kriteria
gian
rain
marg
lagunya
tujuannya
penciptaan
tenang
yong
##mud
joko
diakses
##wangi
shir
bugis
fadil
menges
larut
penghasil
dubai
menilai
##etasi
ruj
##anger
anugerah
filmnya
waktunya
perso
flav
asuransi
masuknya
nukle
marsh
mike
steve
singk
facebook
aid
##shire
##onic
negaranya
lantas
##pah
raw
##ray
menewaskan
##omen
stalin
panel
167
acc
myr
whit
bertajuk
jog
terasa
##heim
liverp
nun
chin
##ualian
pergantian
##rot
seluler
jacob
bawahan
bertepatan
##utupi
berapi
##upi
##ampungan
kargo
##aci
##enh
##iness
##utr
mtv
##tp
negosiasi
kuningan
segar
ivan
cry
peroleh
mencerminkan
nyar
mongolia
##arna
##endra
semif
##incian
kodepos
keungg
##tm
##ede
hits
oxford
moskwa
pilkada
inform
transaksi
dum
paksa
perilisan
perselis
usa
diartikan
keterampilan
##ongkar
harm
liverpool
##aras
##imus
##beria
isa
##unduk
lembut
rubiaceae
wed
##sihan
santri
terbentuknya
silat
basah
pernikahannya
persoalan
nga
##col
##epan
##ror
bec
##oke
##tad
##ego
chu
##ulata
1911
bekerj
##ultur
##antaian
##tanya
geomet
lempeng
##estig
berpenduduk
kelebihan
kesemb
ditud
arn
##tonia
gentian
##bangkitkan
bing
##mus
perund
##rag
dipromosikan
timbal
geografi
magelang
##iayaan
berkontribusi
horor
science
eksklusif
61
sung
sengk
##ips
atasnya
164
mandarin
##wo
skuat
##intis
senilai
syarif
157
tugu
seterusnya
##imo
poso
berkelanjutan
kolombia
##yut
##35
harima
malaya
1905
syair
keluaran
lind
gentianales
idola
##iks
tadi
seper
##tikal
inovasi
##eper
church
kontroversial
samarinda
hell
kartun
kerajinan
aleksander
##akapan
android
engkau
##fak
membakar
##ype
disep
berkualitas
1916
gudang
kecilnya
islandia
pencapa
tongkat
perselisihan
##arm
bergen
##endum
cham
##okrat
##odin
bened
menghargai
didesain
pemrogr
##abar
jangkauan
##elir
konvensional
mazmur
janji
teratur
##sius
public
serie
pengikutnya
mohammad
##los
##able
enc
hatta
diseb
perjalanannya
cn
##hal
##bury
demokratik
menembus
dangdut
color
##mm
##arag
##edikasikan
klip
##opsis
gawang
low
yos
##icol
menghi
batam
yehuda
##inn
##anjurkan
person
freder
albania
mengob
penggal
##enci
wahana
##out
mengas
ditanam
memunc
wewenang
sumatera
perpanjangan
yaman
kemampuannya
hiper
argumen
##anga
##idor
##sic
hidung
menutupi
beredar
sastr
##raj
pengawas
tod
tahapan
wilson
dialami
track
manus
datuk
stud
lereng
foundation
mg
bere
disc
155
##ampaui
##uara
##ekal
sisilia
##astis
via
jiang
smpn
menanggapi
desi
##vania
pembantaian
geologi
conn
memperingati
##air
sekalipun
bm
nord
pala
blog
paduan
keanggotaan
mbah
mengec
nitrogen
kese
harris
bekerjasama
##erat
##inasikan
##iliun
bernilai
press
kesembilan
vinc
##ulah
##omor
##rax
asrama
##opo
berstatus
penghasilan
norma
mengamati
nark
sepupu
sebelas
129
jane
ditawarkan
madiun
dy
bimbingan
##ulingkan
##ayasa
##zil
pengujian
pembah
nyaman
##rap
##stan
menyambut
story
##enjataan
kostum
apartemen
rider
##omon
##entian
##intanya
jawaban
referendum
kees
delta
topeng
##aftarkan
##32
##ets
gn
nba
sv
pidana
##esc
cikal
##fc
##ete
perkembangannya
hub
sea
mentah
berkol
grafis
diesel
mengind
trak
eksperimen
penyelesaian
lot
lock
##enan
komentar
krl
inspirasi
titan
keliling
kau
##obo
termuda
berpasangan
ful
##ovision
mete
puncaknya
##igurasi
##idge
##awati
##anjikan
penerbang
ternama
cendek
keunggulan
##enburg
##urasi
##endang
hiasan
lambung
109
hali
vaks
##ilya
tempo
kesamaan
gap
##aparan
abdur
lintasan
##ista
dipenj
lingkup
kenya
##ident
kubu
nepal
memanjang
##waan
##ento
berputar
107
##burkan
menurutnya
markus
misterius
rit
andi
##plorasi
identik
ryan
kembang
dimuat
menghitung
sof
persis
test
##rem
diponegoro
kepalanya
##ancing
##dan
pemilih
ple
singh
mayat
meletak
ungk
bacaan
klien
##yet
kura
##bun
pemungutan
amin
dugaan
##con
wahyu
faksi
jak
##adaannya
stone
##ormon
alfred
ig
lp
##ds
##ovic
finan
perbankan
##ingen
##owi
mgr
keduta
dihar
optik
diidentifikasi
komis
moj
wind
memadai
##alonkan
bb
detail
hea
##yaw
kedung
gra
jkt48
manapun
earth
himpunan
##qi
##akata
beasiswa
hidayat
fragmen
margar
1908
pierre
eg
berburu
penolakan
##ights
gravitasi
renang
diucapkan
##embah
##right
hipotesis
sirip
menonton
peneg
disesuaikan
##ogn
sib
ve
disini
usulan
ramah
##awarsa
dituduh
oly
##anggal
##alangi
##eser
fol
ze
##edo
akal
##rodus
bangka
##kala
##enger
menyiapkan
purba
douglas
wabah
menyem
##amankan
tama
##kl
berujung
ana
165
jatuhnya
##tagonis
##itraan
unesco
##alamannya
ltd
domin
##phone
solid
queen
virginia
kedutaan
tian
ketakutan
utuh
##elus
prasar
##opus
cheng
ilahi
meh
orkes
##non
##sean
memberontak
##antumkan
mits
antonio
estonia
##sche
memelihara
dihormati
siprus
pomp
melemp
depresi
##ritik
diberlakukan
ilegal
mb
penas
tersusun
etika
klorida
harimau
uz
trek
kemas
berkomunikasi
book
silinder
duo
##emasan
##ternal
stock
##jauan
impor
ayu
brigade
diku
mencintai
162
dasawarsa
cic
sank
##ming
temuan
angkat
##organisasi
seribu
wikip
sarah
karim
garuda
##elo
berman
this
##tani
television
rcti
development
cagar
reb
seolah
##urusan
fantasi
##jan
disek
perkataan
berkolaborasi
##esin
khat
terlaris
##encananya
##erm
menyutradarai
tawar
##ree
pacu
vitamin
wo
menjamin
demonstrasi
finansial
pho
intr
pengl
pisau
##bourne
cu
modifikasi
entitas
diputar
ideal
dai
tara
##ken
##inator
file
##ovo
goreng
kupu
dikerjakan
119
syuting
patah
moon
alan
174
kerbau
dinik
sula
dikembalikan
tsunami
wel
##osom
pustaka
##esik
##aftaran
##tensif
keesokan
pist
pendaftaran
##uce
keseimbangan
nok
vern
diduduki
optim
gle
koto
##hin
berlatih
154
118
##roduseri
##esp
##isma
maul
pembelian
sian
##ange
mengkh
boston
vlad
##yad
115
1915
##iskinan
kuk
lamb
##ingkirkan
##idupkan
afgan
kewenangan
gerejawi
wikipedia
71
rencananya
##idin
##utra
usahanya
##syah
terima
bersuku
##iff
cari
vatikan
##wor
##imah
isti
##ogram
didistribusikan
lipat
laras
pengeboman
##inger
##onstruksi
panah
patriark
diperintahkan
menjuarai
lady
persep
osaka
rujukan
##dad
##die
ich
dipahami
##ebutkan
cia
nich
melampaui
didapatkan
prasarana
##ianak
dikumpulkan
##itiga
lensa
xx
##usik
paskah
jeruk
iris
lisan
saus
week
##ves
##aker
melan
baron
persenjataan
##anggang
bohemia
eun
sag
pengumum
arca
##rahman
berkan
amun
tanam
kuantum
membatalkan
##radasi
toyota
irig
##uela
##amen
##arn
sepur
elang
##kie
cucur
lant
trav
##fs
sils
walter
oksida
diperluas
berik
kapur
minor
menyerbu
pengecualian
country
hori
##apis
##bag
penyerahan
pemrograman
old
varietas
##yeong
##ensif
##tz
##alog
terlah
maroko
pencapaian
jil
##eber
style
dibakar
lewis
asap
said
kaval
christoph
dipertahankan
cendekiawan
##umah
memohon
mendengarkan
##tika
##won
##atum
kemiskinan
serba
sumpah
insp
burma
memasak
migrasi
##iskus
diur
penayangan
##olophia
##igasi
buahan
bungsu
ciptaan
a3
##ikuler
sug
135
hur
ly
tend
##emah
manc
amanat
jupiter
hadits
##ajibkan
##etts
bermukim
kehend
tindak
eurovision
##imbing
centre
ty
##anjaan
##ujaan
perlengkapan
berpengalaman
karb
##ific
rug
##set
step
##istensi
##ebalan
permohonan
##roskop
bergaya
tutup
mera
orangtuanya
108
##ograph
##mara
166
veter
##par
konservasi
penetapan
saingan
iskand
##yanto
##ping
irigasi
tamat
##arl
reaktor
memperc
usianya
##eton
ensik
goa
##wich
barunya
tegas
perusak
##ayana
emisi
teritorial
kewar
##urs
##ambaran
bersangkutan
##impun
1906
##embunyikan
keramik
semifinal
kela
deputi
segitiga
terlahir
81
hara
pena
##acak
##impangan
perpindahan
koh
menjatuhkan
taktik
##onium
pembuangan
vertikal
ungu
piagam
nyaris
silsilah
cangk
fund
kodam
##olit
penang
berpisah
propag
waduk
guar
##anai
kebum
##idia
lembaran
ketegangan
fira
##abet
kron
158
pamannya
pontianak
celah
fel
xin
##ict
##kandung
meletakkan
jaksa
maritim
mess
brian
firman
netral
wen
business
keterlibatan
libur
##37
##uko
sulf
rose
##mentasi
##obos
betawi
investig
pengumuman
##injau
manuf
konsol
penggambaran
bow
##pesi
child
premier
if
156
repres
webs
nab
##atra
##amida
mediter
tegangan
management
pterolophia
kavaleri
3d
lintang
##umas
kawah
ukiran
liturgi
mendefinisikan
cher
128
karn
##otbah
isinya
liat
kamis
saudari
penjahat
geng
jah
##agukan
##fal
perancang
##imon
##ibi
mamalia
ucapan
istanbul
hambatan
##umo
aji
limit
abc
silang
rail
sayur
##unculkan
afc
1907
##ople
persem
104
kres
market
ekstrem
##kos
greg
memperb
##yawarah
dihi
##berry
117
##ordania
##zair
peduli
ginj
sac
penangan
##akurikuler
gond
berdo
##ayangkan
barangay
bhar
penamaan
##edang
traktat
hana
pengab
sumbangan
poros
cengk
squ
##impah
wasit
##osal
##epalai
kelaparan
sejalan
maga
tombol
agregat
##kins
amar
palu
##amerkan
catur
##hao
statusnya
dibuang
berkantor
##xon
rokok
pki
##truk
pengk
mutu
pik
##acun
shu
globe
katanya
reich
diwakili
puri
kelemahan
tarif
##urun
##iting
muridnya
##herine
##elompokkan
pembac
taurat
hektare
##eki
sirk
##ben
kecerd
magister
limbah
sarawak
fans
##tol
kelahirannya
##ents
##angku
bereaksi
hud
huang
ratus
mengemb
pekal
kenyataannya
##yin
diajarkan
boro
##day
menyelidiki
ptol
ferrari
perundingan
komisaris
cris
full
gum
##adir
mengulang
persero
berlatar
universe
pengawal
hilangnya
##yyah
sport
##ajukan
penghubung
syaikh
dipersembahkan
digabungkan
##gie
personal
frasa
##ekanan
harvard
##ativitas
menuduh
##sis
mengandalkan
##egahan
naruto
##ardo
##isolasi
chat
linc
##een
cerpen
instruksi
johor
1901
mematikan
bahagia
sedem
matang
maaf
bush
investor
viv
##att
dibuktikan
##ship
tembakau
pb
##umentasi
eku
perlakuan
wing
merk
##angsungkan
dituturkan
##lish
##enderungan
mengurus
pemelih
dipasarkan
tangannya
nyany
zhu
mengarahkan
##rofesi
kultur
alja
berdampak
buta
kamen
pagar
##cas
##adirkan
memus
##imi
sabuk
perdan
produktif
penyer
republ
legendaris
##ground
diplomat
arjuna
civ
pusaka
elit
##oris
##berger
proton
pasaran
##ariskan
borne
pistol
terungkap
##chan
##light
mendesak
sintesis
##odon
terkej
acmae
henri
feder
venezuela
##lai
##atai
gusti
senator
dakwah
perolehan
kutip
##arth
##ader
##elin
melingk
melbourne
##antes
menghapus
surah
teles
empir
buahnya
cucurbit
kiai
pikir
meledak
##enteng
berkom
konsonan
penghuni
skema
mengantarkan
rincian
tob
##rida
batasan
analog
##etri
penyus
terkecil
##injam
##integrasi
##ahulu
genc
pramuka
jang
wit
##ugi
##pol
atlan
gerilya
demam
##jang
##issa
herman
##vensi
inci
beton
begoniaceae
##usc
##etta
death
bermacam
galeri
sedemikian
cucurbitales
amaz
tengk
perbel
fung
pg
##bukan
##ante
mats
sinema
lokasinya
rint
kantong
pendahulunya
penalti
singg
tawanan
kecenderungan
sejarahnya
sachsen
cond
##mes
indonesian
tani
bord
biologis
leste
##eknik
perempuannya
ginjal
pemeliharaan
##apuskan
memukul
warner
perbelanjaan
##36
sindrom
zen
berdoa
acmaeodera
##alth
##isha
thor
##ugo
ekstrakurikuler
##amoto
arsip
terpadu
racun
yok
##ecah
emp
##yer
##rix
og
##udahkan
##ungkus
peti
##bn
almar
pengasingan
speed
website
##ulangan
buddh
mali
intens
##etulan
##oster
kelem
##wer
ilustr
deli
kongo
kakeknya
aljazair
##uch
##idaya
metabol
##ites
berkec
perlomba
koordinasi
teras
tercantum
meres
melengkapi
diklasifikasikan
persemakmuran
ring
vin
sambutan
fungsional
##vy
mengutip
122
##omyia
almarhum
koperasi
panji
##uaskan
litu
johan
3166
qin
pemir
##edes
mendatang
wisnu
##osus
##utanan
eff
spektrum
ungkapan
membersihkan
dijabat
firaun
terkejut
perlombaan
persembahan
warung
perkara
##pedo
##cast
dina
##isia
pale
maharaja
afganistan
mpr
sanj
yordania
massachus
diiringi
spesial
diperintah
season
##uro
pengu
ericaceae
##abe
diskr
fort
##adin
coll
pupuk
##bes
anwar
1890
vegas
sod
##arinya
control
diukur
perempat
kamus
konfigurasi
membujuk
ksatria
nugini
penanganan
sten
komposer
europ
bergenre
cong
##ensial
scre
##atuhi
komplek
nyanyian
puas
sj
oricon
##opot
direbut
ceritanya
iden
lingu
adit
dipelajari
kebetulan
##asaki
dilayani
mempro
imun
sams
efisiensi
va
##cia
seratus
pekalongan
massachusetts
##okrasi
kekaca
gede
bebek
herz
##anaan
penentuan
brad
kaka
##ahul
##uansa
dirasakan
112
tentunya
matth
lituania
cod
##38
meneliti
##tura
prest
##gio
137
kekacauan
##emu
telkom
tulisannya
bercerai
dikenali
legi
##uja
ambil
madinah
mendadak
koridor
##inik
##rio
golkar
mekkah
pelopor
gord
memulihkan
mengend
penggerak
kyoto
dalem
diad
##idium
mengamankan
##tone
kotor
square
grammy
dub
gov
##orter
##ogne
kalium
banding
kehancuran
sifatnya
aqu
jump
##ape
kerag
amatir
payung
dapur
io
kb
berinter
pre
##acap
##rise
profil
##box
fall
jok
kemah
101
##gram
observ
lig
tunduk
berprofesi
102
169
##bra
memerik
dikur
##asannya
dilalui
qi
beruang
kesimp
diselamatkan
family
bunda
panj
##gh
##zig
##ususkan
denp
penjual
ejaan
##bong
149
davis
##feld
jaminan
pencari
proklamasi
amf
komitmen
presenter
dkp
menyenangkan
##onsentrasi
pemanfa
memudahkan
##evan
penggunaannya
rupiah
inn
java
pengkh
terhitung
pelaut
##don
##xy
mendeteksi
siam
bensin
darinya
akademisi
diamati
mengingatkan
##uaian
dipro
1903
mengejutkan
mewarisi
nasihat
vul
##kal
dioksida
sebulan
atle
abjad
1902
software
kebumen
ageng
didalam
hiu
bollywood
taufan
teleskop
##amia
##otop
stef
##asila
itb
##jawab
##imanya
##endam
##intesis
temurun
##ences
##aduan
##roc
mex
##onder
fotografi
carlos
bros
gala
##ovan
permus
potter
bong
##33
memad
##imin
kulon
vulkan
##entase
sibuk
bertanding
ditrans
anom
mycetophila
##ulainya
membangkitkan
##abil
pasokan
free
1898
tafs
##mund
##olitik
##imeter
##impa
tombak
pintar
##ebatkan
172
mengenang
##buluh
roger
pom
suaranya
menyentuh
##alaba
menunjukan
##gau
##jin
dipotong
perhimpunan
antiokh
lic
sev
##act
##achi
145
350
##aco
1904
##ener
##umuskan
stro
johannes
pemikir
laos
pemujaan
memperpanjang
cour
mendiami
avi
pemirsa
berinteraksi
bt
pn
##eras
##esif
baca
dut
silver
rahman
veteran
##anggih
mind
nanti
march
sangg
dead
perintis
##rediksi
cim
yat
sekeliling
diperkuat
demokratis
algorit
iain
akuntansi
##ubungi
dilatih
##duktor
##yll
abbas
inisiatif
haf
quran
mart
ibn
mengabaikan
menyerukan
politeknik
kutipan
sao
eksternal
bedah
cilacap
##arau
bermaksud
widodo
hiv
dirawat
aziz
propaganda
##jaya
mega
linux
pengantin
waw
##orum
##esium
baginya
rober
express
ternate
syariah
penderitaan
movie
het
puk
adu
##imir
##ellow
beli
didorong
bangkok
jendral
kewarganegaraan
delhi
##inea
##aden
##ompat
didedikasikan
bukannya
cep
##isd
##ulangi
kemirip
misa
dicampur
sctv
ce
semata
ditangani
pekerjaannya
jami
##zine
berkap
michi
arsenal
laku
last
memaks
melekat
isabel
##station
##tinus
gencatan
##xt
airways
##ilisasi
139
imb
kawin
clath
buddhis
secret
konstitusional
##ghan
kepend
minang
memasang
slovenia
bua
cover
##antungan
##injamkan
denpasar
cli
seksi
thai
##cht
mempekerjakan
journ
aluminium
subyek
##iayai
wr
pekanbaru
penglihatan
reh
##ulf
mengudara
terpanjang
hp
kenal
pengenalan
106
penerangan
virtual
botol
##sd
##paskan
menghambat
##ussalam
diusir
vel
pav
##osistem
cut
cetakan
##ische
proc
menyesuaikan
##olongkan
berbahan
114
parasit
frederick
lini
norman
dkpbb
datu
##emo
##agara
perkampungan
gabri
fantas
##inas
dikat
kehutanan
keberadaannya
torpedo
what
cacat
kehendak
hormon
lon
pengangkatan
irama
pemulihan
ferd
merawat
##awijaya
aram
kolektif
doub
seminar
##span
##ihal
didik
##anium
imbang
kompetensi
##ahag
kean
tempuh
sekolahnya
luasnya
moz
##barui
pilar
landas
billy
kresna
gaji
pilih
var
selang
##icarakan
bull
##entum
guy
mediterania
nint
karo
##illes
pangkal
luther
disepakati
zu
asean
lyn
##isal
integrasi
borneo
bai
jember
tasik
1895
dilepaskan
eus
masak
sumbawa
klasemen
tae
##tid
##bilitas
pancasila
banda
##gb
dirayakan
gom
paj
##rek
##34
terting
melukis
sedih
138
nigeria
hass
ric
##yadi
propor
koneksi
benj
moore
terbitan
koordinat
ludwig
perebutan
plaza
musyawarah
orbital
pedoman
##eluaran
##oord
##ulit
menggunakannya
terkesan
tarekat
##sai
bersembunyi
bayaran
four
ethi
tad
##awahan
terdahulu
paralel
##oria
gandum
##papan
films
penyatuan
##omposisi
homosek
reruntuhan
manuskrip
##enos
peramp
setingkat
##anting
tren
soul
ditembak
terpenc
oxy
period
balikpapan
##yth
##nanya
serp
pengurangan
deskripsi
berpot
salim
pengem
##endi
residen
kuliner
event
two
##yono
pengeluaran
##reasi
prosesor
parker
##rakan
##inang
##ayak
##izi
lac
menantang
##omata
crit
##omendasikan
##tributor
memeriksa
##alakan
##utaran
tre
resm
andy
andalan
layaknya
##ias
##apar
mengucapkan
berke
berkep
shal
kompi
lept
bernard
percakapan
berlaga
vaksin
fik
##ior
##bh
##ovich
variabel
num
##arch
malta
farmasi
miz
afghan
nyawa
anthony
bujur
bermanfaat
##mana
diarah
##aser
dikabarkan
##tikkan
otomotif
technology
##lak
mengepung
bangku
tangkis
fernando
##oss
makmur
menangis
rim
sendirian
pig
ria
wijaya
##vir
##fare
##olok
abi
sisik
134
gao
merekrut
##erjaan
sardinia
loc
berunt
##engkap
racing
trich
kehidupannya
nations
##wat
teolog
pius
koes
sastrawan
##isius
diproduseri
##ection
teroris
transp
pinang
hanzi
nia
##akiman
##ukir
dekatnya
torym
finish
rhe
##ube
##uge
intervensi
menanam
sinode
147
1889
1870
##ahului
##lement
dikonsumsi
bruce
kontras
1909
kazakh
##zong
mengontrol
serd
arte
kepres
manual
johann
rasulullah
queens
##enne
dikh
ov
##pektif
pemburu
##encaharian
willem
margaret
abang
##okuskan
tersembunyi
##enggam
##play
berbuat
spes
ald
##stal
manila
benedik
cul
##nasi
berdiam
##ocera
minta
rabu
niat
joseon
berbunyi
diarahkan
bilang
##com
usus
jersey
lengkapnya
dieksekusi
lob
seumur
##ilh
pembuluh
terganggu
pribadinya
sekretariat
mog
##yung
penug
drive
nintendo
##isian
kebaikan
prad
ketert
piramida
rick
kemarau
keris
timnya
benang
menerjemahkan
pemanfaatan
gila
rin
##ingi
##cho
pencegahan
tegak
nascar
led
rasional
##ely
mencalonkan
##saat
1897
hamilton
berkapasitas
sedikitnya
pengantar
aula
hugh
dikutip
trump
##estarian
pacific
##imu
antarm
orientasi
hui
##istor
##uria
name
panicum
kristian
madu
keterb
karawang
##omendasi
ign
##raw
##jak
selir
polimer
##eva
##ikator
revisi
##jar
triliun
mantra
sangatlah
136
##lands
morf
charlie
nato
canggih
m2
serigala
lahirnya
1899
berabad
penyihir
penjuru
friend
muti
##ants
belitung
persimpangan
people
##burgh
cian
biarawan
##igu
medium
jason
sambas
host
##enberg
##town
pembatasan
##lopedia
xv
ara
suksesi
pandawa
ott
##larasikan
mnc
juven
berlari
roll
christopher
iskandar
kuar
dimodifikasi
116
132
slogan
##kesmas
##aulat
##opulerkan
##timal
##39
diteruskan
iblis
sengketa
##ahbiskan
dk
eb
##mid
##fri
##orangan
kemunculan
babil
comedy
individual
nis
##asu
ketu
bertum
order
tembak
seminari
##sau
##adik
selasa
keping
hatinya
persib
cov
##organisir
mh
diagn
matt
liburan
kecerdasan
memajukan
##ianisme
##entaskan
partisipasi
mendeskripsikan
##enarkan
prima
menghalangi
minim
rekayasa
menyumbangkan
sbs
diberit
udang
##ylvania
hd
dimulainya
##eransi
1896
bagh
soed
tao
berisikan
grafik
alaska
tingk
lurah
##usai
utang
diperpanjang
selepas
duri
##ival
laskar
yer
hart
##ifer
##akuasi
##enta
kapas
johnny
memberitah
tiri
sean
perhi
##awai
##ontal
##rejo
cacing
donald
##31
##egat
dilakukannya
spesimen
zul
diap
relief
pembacaan
untung
##ianto
##aine
126
act
toronto
jombang
jordan
##lia
terw
peradilan
kakinya
boliv
levi
lop
##sem
disambut
gresik
offic
butir
dinamis
##pt
koment
km2
keberanian
proposal
kidul
buaya
neder
##tav
gibral
aga
tatan
kelanjutan
suzuki
pelep
##juangkan
kash
mengakses
##ος
kesus
##alisasikan
bermatap
instal
##enggung
kla
loy
mara
##leksi
##itra
pengelola
venus
ub
##ners
dikritik
kesan
awam
debu
kuant
terkini
##ouw
supers
memunculkan
##anca
harun
waralaba
western
implement
lup
seat
##akes
beracun
adolf
design
kut
benih
perdananya
gibraltar
alber
alice
ekosistem
mutlak
dominasi
boys
bermatapencaharian
mainan
qatar
##eru
##evolusi
philippe
kesimpulan
##down
mengira
##opang
pandai
ethiopia
dpl
wira
##anaman
dikonfirmasi
theat
pembaruan
carter
penjajah
garut
##idan
##osc
karna
dipastikan
mangg
mendaftar
kuburan
puskesmas
##egorikan
mk
##ikirkan
aneka
perpecahan
earl
glenea
##yun
##ovina
reputasi
slowakia
asyur
kanselir
pesa
##lyn
habsburg
mengobati
kental
telugu
sku
purwokerto
hama
##yeksi
fashi
goth
nm
##craft
##versi
##akwa
paten
kasi
##atuhan
##omod
##onde
darwin
lukis
1860
keyboard
mumbai
##odinam
kill
tapan
##lasi
nasionalisme
budidaya
##osiasikan
teguh
pemanasan
berwenang
jessi
##cakan
diag
##esuaian
144
ukurannya
kemiripan
etan
sui
##umpah
mekanik
tragedi
ain
beh
states
berkisah
hyun
lenin
kenc
zhao
##ading
sumedang
hamid
pengunduran
gantinya
##inton
##tifkan
keham
keturunannya
field
dikirimkan
konsultan
lut
rib
perihal
mengerti
politiknya
##resentasikan
penugasan
##des
##ambang
asas
persentase
dramat
terpengaruh
tvri
volks
##mel
sei
sertif
arahan
spesialis
kontin
teleg
rentan
clathria
tempatnya
ow
panama
dod
menghadirkan
rekomendasi
##abut
menyiarkan
kairo
##hio
fleksi
kentang
tandang
phyt
berkali
##hani
layang
sukabumi
mengakuisisi
abdurrahman
##ilat
##iac
##buruan
transit
##ize
franka
penggalian
sulaiman
linguistik
##sef
tiada
ultra
tertangkap
history
gri
rm
##bung
##aktian
pement
bersekutu
instansi
142
kast
patih
bayangan
dimasak
playstation
geometri
cerah
trem
emirat
##aksaan
guad
lanc
##ulin
##ensasi
gamelan
bajak
##thers
ferdin
resminya
pns
##ahtera
##ohkan
ruf
topi
sakram
mai
sili
tayangan
berenang
minimum
monyet
logistik
konstantinus
fashion
fah
ost
ral
menyangkut
umay
interior
kalsium
##rang
gunakan
araneus
ross
perhiasan
agensi
isotop
halte
math
tower
##fu
##less
##adel
rey
gulungan
drummer
penand
##ication
start
sertifikat
sesaat
##ades
##chin
chall
caesar
kis
kent
deut
oksidasi
yonif
kib
penguc
##arannya
shen
##adewa
hous
filosofi
nh
##ening
menum
menab
##tawa
nutr
kait
berpotensi
keun
membantunya
digabung
ulu
pacar
##qui
##enium
spesifikasi
kader
dihadapi
##ennis
##usuk
sparta
pesaing
rabi
##athan
bermas
##entak
akta
panduan
sudan
break
##isdiksi
josh
menaruh
mengikut
pengemb
perhubungan
##malaya
##rick
siswi
kapoor
istirahat
baby
##utupan
walt
lub
lidah
##zia
##bian
masanya
sejahtera
areal
tint
sepup
##atio
belanja
miller
##illus
pascasar
penind
menyembunyikan
marvel
terbalik
cermin
neut
satya
rahmat
1885
napoli
special
dihiasi
juventus
abor
1886
koordinator
##tukar
mengut
##tius
bertek
##enjar
narkoba
akbar
sehubungan
stream
kejuruan
hidroks
nt
ruas
anark
148
banyumas
skandal
##infeksi
mengindikasikan
muj
terintegrasi
penutupan
##tret
surut
reproduksi
logika
jilid
hj
peresm
##ird
pendanaan
##ehat
cow
##aig
diputuskan
pembic
facto
fungsinya
xia
##kel
##asus
ibukota
mempercepat
sepupunya
eti
##imental
interpr
swift
disekitar
penafs
kelenjar
kendati
food
##mouth
diego
menyamar
dark
babel
hamba
siapapun
meteor
add
brazil
tasikmalaya
asa
dikisahkan
alfabet
sahabatnya
afghanistan
fond
persediaan
##awaran
rusa
momen
hungaria
caf
guan
##idian
##apasan
dipan
##sualitas
1880
woo
pass
ikh
##olet
##ajan
sertifikasi
sinemat
##loitasi
sabah
substansi
memperingatkan
investigasi
##alurkan
biak
transformasi
renovasi
ais
jasanya
vektor
menjanjikan
sekuler
poly
social
limited
##ox
penns
##rier
kejayaan
artefak
##furt
karibia
dipecat
original
identifikasi
ue
##ayanya
kemarahan
come
terpencil
##atem
sumbu
bubuk
membuang
cilik
peraih
membel
jutaan
prosesi
cianjur
bone
##var
kesatria
selebr
pascasarjana
pakai
memo
arwah
akreditasi
menggantikannya
prioritas
rachel
memuncak
lonc
##amal
##bagai
benz
sosiologi
ditum
penggantinya
penyiar
codex
resi
##andar
cakram
##ness
##hid
diet
memperd
newton
finis
olymp
antarmuka
##egro
##esaran
kecewa
duet
ragu
##oge
atp
airbus
obl
1894
##enix
slamet
pembicaraan
terak
block
kejam
gowa
gurunya
##hattan
##pesies
##tos
kalian
sports
manik
didat
busur
##inois
mengemukakan
melast
pran
diklaim
ditahbiskan
##lion
##ouch
digolongkan
mao
mill
##ensus
##uster
antik
menyingkirkan
disem
kongreg
kekhawat
generation
journal
mutiara
zim
##ao
die
##taceae
##ities
bakti
redaksi
##empurnakan
dm
##rum
kegunaan
menjauh
##unjang
buddhisme
double
##omataceae
pantas
tbk
kebahag
##inggung
simpang
rupanya
river
deng
toh
seusai
##emy
berapa
##ekali
dilangsungkan
restor
hadis
1888
##wahi
sido
manufaktur
asumsi
perspektif
##impinannya
regulasi
dorongan
pennsylvania
##tipula
hann
##rac
terper
manhattan
dekan
drastis
masyarakatnya
punk
galil
topografi
diakhiri
endemik
melastomataceae
##rence
membah
##iva
kapel
##ocok
##ensinya
epik
macan
lampau
gend
##ungs
untuknya
kembal
##orientasi
terkuat
mission
antariksa
nbc
##yama
##ungku
informat
menyumbang
personil
##worth
algoritme
ian
rag
##ukuhan
hias
kekuatannya
know
reseptor
salv
ajaib
denominasi
etanol
dz
##stein
##yas
##kul
meniru
perti
memutar
timah
blitar
gordon
vamp
separuh
krimea
fitri
tungg
berseb
manif
singapore
diploma
ferdinand
##oln
dibidang
##awiyah
potret
kian
penamp
sejajar
aff
renault
anum
seru
pengendali
##angkar
gerbong
persawahan
nara
perry
##trad
sandiwara
made
menump
##ilikinya
dosis
ero
##dem
penemu
belar
hap
susan
unic
percetakan
detektif
menyeber
##ces
martir
tumenggung
brook
imigrasi
##gs
action
mandat
membunuhnya
jimmy
instalasi
yen
##enza
bermigrasi
menguji
penanaman
menjelajah
##endemen
skt
diakibatkan
genetika
diperbaiki
sosialisme
isyarat
siwa
terpecah
strip
kesetiaan
govern
lil
##mod
diund
pemad
dikelompokkan
pelarut
##ateral
bonus
yurisdiksi
hey
klinik
bermesin
english
navigasi
ment
align
kolese
##bankan
michigan
##yani
##anegara
brebes
sulfat
balasan
pdt
studinya
european
herzeg
tatanan
##fol
manu
counc
allen
laser
howard
debat
hamm
ns
type
##oan
dica
silla
terwujud
phytomyza
side
##okok
prat
biola
gregori
mix
parit
lek
disiapkan
guatem
dara
vs
##asiat
okin
psikologis
bersah
ong
##etuai
kepresidenan
fro
ink
##oros
##atifikasi
mendatangkan
indie
thril
transform
##load
artistik
sos
##wick
parad
haram
nd
s2
merantau
subspesies
vil
progresif
jambu
dibayar
akademis
dipenjara
##pei
##orb
pentas
ditekan
##olisis
sukarela
fuji
kanc
##nel
##yangan
##arius
kosakata
umayyah
like
##oon
##ici
penyem
uss
sym
pssi
##ugikan
sutan
##antha
pelac
##obots
##unggah
pinyin
zhong
beribu
pelantikan
deep
beach
bpk
vladimir
##ahkota
##emari
##elaran
##ipulasi
##ayaannya
laun
flash
mangkun
##cang
##igo
patroli
sengit
informatika
cis
happ
##onesia
productions
keunikan
lia
pakan
##cul
steven
council
wright
memancing
1800
kebijaksanaan
beth
terkandung
syl
monten
sakura
##urnian
myrtaceae
ruth
menggerak
##eps
suri
katak
##instein
gory
damask
franz
alpha
benjamin
##ating
entri
moch
##titusi
gluk
1884
bobot
emosional
nutrisi
##lem
bawahnya
sign
cbs
##atha
menyandang
prab
kerak
##uarakan
menghidupkan
dicuri
nasution
blues
menyeberangi
herzegovina
##iago
director
platinum
diperdebatkan
bia
kisaran
##tinya
##wono
menduga
stew
tommy
cekungan
unjuk
mengungsi
kemitraan
kronik
upeti
##stil
berteman
##shev
fajar
wur
##pm
##ikar
berti
##usen
chem
elis
kesepuluh
##key
##adanya
##oyd
jarum
rekreasi
##dal
##did
##pn
##atin
menel
anglikan
##ondis
mengenali
prototipe
kehamilan
##rel
bahu
theater
colspan
pedro
desainer
##had
plot
##yarakatan
##engkung
brothers
terorisme
1500
##inggo
guinea
percintaan
kekhawatiran
hob
puasa
tebu
ranah
leop
ultr
damaskus
lisa
##jian
##ices
kumar
nias
##holm
kebahagiaan
##enberger
##osl
##oting
kore
mekanika
factor
keterbatasan
zur
##ring
##iria
board
##rakar
##cr
mengel
opini
mendatangi
siliwangi
##anjak
politis
soo
mempercaya
memperebutkan
pembicara
expl
kerjanya
bla
diimp
anas
kelainan
chal
digit
kenangan
##itungkan
carolina
sakramen
##arget
##orogo
##gunan
mendidik
cot
saka
tirinya
##mani
mengalihkan
perawan
membandingkan
penyunting
permata
yudh
theatre
thriller
stabilitas
##presikan
tafsir
guatemala
ey
##ilkan
##oven
dibahas
##ather
konversi
##ontrak
oriental
##empurnaan
##gl
pret
chun
bals
hav
struktural
boles
hul
kauk
menghukum
lubuk
screen
##arum
madag
magazine
derby
driver
vincent
comb
##pel
##zel
##iringan
karno
batin
klinis
smart
evaluasi
trio
ilustrasi
penandatangan
darussalam
##oshima
bersikap
hog
mesi
perbud
aragon
valent
cannes
eas
yuk
##jati
menayangkan
##isnis
asin
istiadat
dikategorikan
tintin
xvi
##erra
penanda
masukan
kakao
okinawa
munt
##isy
three
utc
baek
fire
bubar
marshall
berist
senanti
##ombinasikan
confer
link
madagaskar
##hitungkan
golf
##hentikan
##egon
maulana
##ilus
berorientasi
chand
kafe
major
meth
cabai
francois
kazakhstan
montenegro
indosi
umpan
##iform
##ulistiwa
penghap
balkan
econom
tendangan
fantasy
jajahan
melestarikan
tekstil
##aksian
##yce
organiz
tersangka
perpaduan
eksekusi
penasehat
sanksi
indosiar
hormat
##baran
albumnya
tumor
lingkar
morris
##ugawa
##hya
filmfare
dibiarkan
terjad
pearl
multim
##ondisemen
terinfeksi
mengga
malu
##atory
aristot
matthew
dikurangi
cakup
amino
panti
bermotor
samurai
segel
aven
jasad
##etuskan
senantiasa
olehnya
kamer
corak
https
phoenix
penghapusan
beran
pered
##opoli
tertanggal
lutheran
adrian
arondisemen
mesopot
anderson
##phia
giovan
chiang
dangkal
##onisme
##rikan
##lisit
bertema
cob
dalang
luhur
##unangan
memburuk
mendasar
jerry
tablet
menganalisis
hijrah
nokia
implementasi
jacques
perbudakan
makalah
menggali
papirus
moskow
femin
ping
gerai
##ardjo
relevan
##ziarah
performa
menggerakkan
lith
##sul
diolah
##iliter
##ukar
dideskripsikan
##ores
mahmud
suster
plasma
dikemukakan
basilika
kristiani
##enge
##sias
prev
mans
airnya
##utut
catherine
1892
reform
instrum
marsekal
hugo
##oom
berdagang
metod
peralihan
barito
amunisi
penyusunan
cass
##roit
##awe
1881
motors
lawrence
ponorogo
##elusuri
pukulan
beristirahat
lilin
sala
##nus
tersi
berbakat
komponis
konsekuensi
educ
peresmian
##ipes
subang
rein
diperhatikan
mario
##uryeo
kawat
matanya
chung
ditonton
ketenaran
##ophora
ml
mengimp
kemakmuran
bersem
latvia
##itzer
gy
menyis
reza
ditempati
##encia
##oyan
its
schl
lincoln
curi
mama
intan
menginj
##ampingan
palm
balas
##eksasi
class
galuh
elektrom
tangki
pengabdian
mesopotamia
ohio
##aling
##amuk
keemasan
##enggal
##ulyo
##see
dilancarkan
resor
turbo
kath
yakub
keponakannya
interpretasi
fari
vers
##tainya
libert
katalog
arkeolog
##roklam
sok
##tator
##ekarkan
##omat
altar
matrik
baud
pernapasan
porto
fisikawan
chamber
tapanuli
kongregasi
##ulikan
##arani
##etapa
pelec
eksistensi
##ucian
ramad
helm
pow
##sons
perib
store
kesem
skadron
saturn
rakyatnya
vulkanik
##pos
##vas
##obia
obama
tunisia
russell
lea
yuda
##adt
dipinjamkan
barry
##asilitasi
ditunda
dipering
klaten
acak
joan
imbalan
feng
oz
sepert
##otis
dikepalai
bersumpah
memperjuangkan
450
manda
putusan
##apisi
bruss
buyut
cook
##alifahan
memerangi
beatles
goguryeo
menyembuhkan
kembalinya
ft
##dle
##kon
jual
komputasi
tokugawa
cooper
##iii
snow
membantah
uh
##untuk
menamakan
any
##apati
astro
##ugerahkan
1891
menganggapnya
summer
baling
pembersihan
melepas
unta
kuwa
##enewa
tsar
##raktikkan
menuai
pengebom
##core
##wari
keba
##onaut
lembar
sudirman
achmad
benediktus
modul
berkembangnya
franklin
penanggalan
cuma
fle
slavia
##far
diwar
##illah
perkan
station
brawijaya
kodeks
intensitas
##angganya
lanud
ditaklukkan
bris
haj
sob
perawat
indikator
women
ans
##laf
obenberger
produksinya
bibir
##iris
penempatan
menyatu
kanaan
nyi
pengkhian
aar
keingin
peron
kemasan
lebah
battle
dukun
evol
second
enterp
dianut
prince
centur
##ukuhkan
frankfurt
eva
##umbu
diker
fame
mail
alien
bundar
skuadron
zeus
##bad
##hari
turbin
penembakan
khatulistiwa
esa
##can
meminjam
##awir
##okum
disatukan
##angsang
dihilangkan
##enggel
gugatan
raymond
vernonia
mekar
##ahuan
selamanya
bertenaga
charlot
menempel
##av
##erna
org
##ipennis
kekhalifahan
illinois
penindasan
membahayakan
kanj
##iance
asuhan
pementasan
fk
menyewa
146
nyeri
1864
kidung
mengemban
tengkorak
##hop
penekanan
abstr
berdaulat
bisu
pulih
letkol
1871
aleksandria
lada
til
##emens
kerang
##ombong
castro
gadang
##ornis
bulanan
mahab
ida
kupang
ranj
ranting
##tib
##aeus
daily
pandan
yama
##inata
##engka
pemangku
##oplas
trun
malay
urugu
menggulingkan
menghibur
aditya
dul
nuh
##esidenan
sembuh
gim
socc
##bulu
ganj
##py
chev
lav
didi
upah
julius
mdpl
hosp
##low
##ancy
1883
diasingkan
august
jenewa
mawar
##opatra
bip
more
miring
##sil
##kad
perik
penip
agr
agenda
skep
##tice
fland
##galkan
memberikannya
pencetak
url
##essor
memberitahukan
##odia
julian
##trop
##abilitas
kaset
mempersembahkan
genggam
jeb
nash
stop
aspir
anumerta
beper
luna
##ehkan
pendahulu
babilonia
dicabut
##bd
adven
serentak
pengerjaan
emmy
bendahara
auto
737
sz
##ouse
termin
menyes
##atiga
pendamping
terjebak
petir
menggel
morgan
360
heavy
orkestra
diskriminasi
restorasi
perkantoran
basi
##uer
penawaran
terbar
cekosl
nicholas
penafsiran
belakangnya
hs
##virus
##zza
diga
kesal
bermata
catal
defin
keinginannya
uruguay
bepergian
diserap
##tono
carn
perges
1893
luksem
rongga
##espond
luksemburg
gizi
punj
trig
berevolusi
##ongk
##angkai
##itaan
##obus
##alistik
##burn
flora
pengaruhnya
berjalannya
century
dijaga
mendaftarkan
1887
1878
rna
##atron
##idu
meridian
pink
evang
mengharuskan
mengerikan
ernest
antiokhia
transparan
##otek
medi
membawahi
##ffe
##aminaceae
bundes
antropologi
mts
shaw
mabuk
kejatuhan
jurus
pemandu
##integr
mexico
balsaminaceae
##uet
##gma
##essa
penataan
ingatan
ratna
penyelamatan
cloud
htm
##agung
percepatan
legal
nitrat
heg
kelly
##chus
##neum
##itium
maxim
somalia
kuwait
soccer
most
tanj
##jong
sanggar
depannya
menyertakan
aids
uzbek
berker
lakinya
torymus
quan
rind
tm
sekte
chlor
menghubungi
irian
kendal
berbunga
horiz
##osen
1830
220
pagan
santiago
sidoarjo
##aham
##tie
bahrain
##oyono
grande
gregorius
beralam
mered
sket
magic
penguasaan
persepsi
gha
nek
nai
silik
##met
##fah
##osta
sela
mengag
enggan
kromosom
baghdad
##ful
##sei
mekanis
bintik
pradesh
aja
cyc
##nologi
##enovasi
1882
lus
miliki
##enth
blackberry
electric
dest
laura
esai
tetangganya
durasi
biksu
neutron
multimedia
tn
wac
xian
##ikon
terbentang
##embung
sistematis
alfonso
bolivia
##kov
diungkapkan
##itte
membina
##emput
rolling
amfibi
##hib
##yim
intensif
ornamen
##ograd
dimekarkan
carlo
badak
calvin
paulo
sensitif
rasanya
##ustik
##ularis
##ekarag
bersiap
##ucut
nathan
mengabdi
neraka
gw
pdi
melanda
##manuel
penggantian
adams
pengucapan
eis
##yum
##ulian
merep
rd
ward
##oreng
aten
brt
##toc
sunni
##identif
tomat
fotografer
rapper
bijih
jonathan
##undanya
##ekaragaman
homo
mt
rif
wins
##okimia
pengadaan
ont
boul
uranium
susilo
amazon
sepertinya
hes
tatar
##pal
##buwana
asper
##uncur
sybra
lucu
hikayat
buru
##akunya
ami
paspor
hymed
dwi
##tam
berdurasi
lex
peranta
pucat
##argetkan
lami
titi
##fis
##onna
pengumpulan
filter
kapol
mendapati
elektrik
pemasangan
mengutuk
mancanegara
keanekaragaman
denis
##ska
##itatif
ard
##oharjo
party
1850
motion
computer
perundang
shim
buil
syukur
disebelah
seattle
sms
kelautan
conference
##zio
pelestarian
ingat
jamak
##house
bukittinggi
celana
bertulis
beriklim
aeg
##kanya
jujur
bersumber
dinosaurus
riz
##acher
dinamika
konstanta
##ajo
suaka
kompetitif
menaikkan
##king
##onisasi
##ikawan
##taf
##thy
kesalah
##hie
ibunda
after
representasi
critics
750
bian
jae
##yaratkan
lantaran
mengendarai
jokowi
ketertarikan
##reh
##ulung
leip
tercipta
pucuk
sanggup
oxyop
tub
##amus
##eds
than
turb
kutukan
ble
##jub
##kha
##amo
bersamanya
satwa
ruu
##jiang
philadel
broadway
ptolem
tertinggal
##enggelamkan
##tics
kosovo
purworejo
nederland
pergeseran
oce
##oter
pemindahan
pemancar
diketuai
senna
berjasa
dieja
narasi
##nografi
##ct
##iker
##olep
mengerahkan
berskala
acuan
hyper
secur
##enes
chip
kerajaannya
##acht
sahara
bina
jamb
perantara
penom
menjangkau
berdasar
reser
stadium
quad
dramatis
yudhoyono
puj
yin
memikirkan
pertolongan
apel
mendampingi
batur
menggambar
##ahkotai
beck
sajak
##alangan
perburuan
##opl
sepertiga
stim
entah
professional
word
##gang
##onversi
##trech
melukai
mencantumkan
##uncing
##angsungan
superi
##ungsikan
mitch
jayapura
##unga
melompat
stat
daur
nelson
jamaah
##ergi
##ulir
penobatan
komet
kesaksian
terlarang
komunisme
pencerahan
dituliskan
dollar
rotasi
diwariskan
destinasi
mangkat
##osfer
sebastian
manuel
memperm
holding
absol
jian
##cle
menganjurkan
##agromy
##aannya
##oroti
brow
mori
sina
##ple
##egal
pembeli
dilewati
durian
##agromyza
ira
##pet
melodi
karol
berposisi
3000
gabriel
cant
##osida
##ibar
##ocl
ibm
libr
uganda
horn
##eland
##anduan
dipad
##temukan
kaliber
pelawak
taksi
curug
player
kpk
metabolisme
##shevik
##gantungan
##erma
agency
berpakaian
kehakiman
##afiliasi
samos
##wald
kegelapan
bengali
tambak
anatolia
##loid
##elatan
trik
taat
##resiasi
pegulat
diwajibkan
cakupan
ls
##cal
memuaskan
##optera
sekian
kepeng
berkek
dididik
presley
tekstur
mudanya
oblast
stewart
eh
diana
##uling
sebaiknya
halim
tercepat
##arui
mencabut
mikha
matriks
kana
alfa
aroma
organis
orient
voice
wwe
dibaptis
roth
##ruk
##gak
##tica
jubah
pemutaran
kings
lamiaceae
imperium
pund
verd
terusan
thi
menghant
wahid
##tabilan
eu
kbs
##emoni
##isch
lebat
blood
diantara
lupa
whe
##bro
menanyakan
kepanger
siberia
ukur
dialihkan
lancar
##hur
menamai
merugikan
##opi
mencolok
jalannya
australian
##ticons
gary
penganiayaan
lc
nim
##iak
sejuk
##ove
kebenc
militan
health
giovanni
charlotte
kepangeranan
##oha
##uard
bry
brev
syiah
osis
munchen
##jemah
detroit
leipzig
bn
cec
ringk
##enaan
##ingkir
tiger
membenci
german
division
ninja
lingga
##isih
dipentaskan
isis
bella
sentra
sour
ketersediaan
quar
##ibah
##biotik
solok
##olat
kemiri
agnes
##alau
##iger
basuki
piringan
mempercayai
giri
##mun
##mont
adonan
##icia
keseb
pencern
hyd
holland
seberapa
pengemudi
pelecehan
lamiales
##atinya
menunda
103
poster
##efisi
sarung
herak
kiev
bobby
trailer
hos
##arita
ariz
##etaan
ibundanya
dicari
kotoran
jessica
menabrak
list
seine
##amata
##opak
##ching
diperc
##embal
cav
binti
puerto
daunnya
1879
menegakkan
penomoran
dipamerkan
perkemahan
dick
##pora
haag
derma
##idion
##okumentasikan
##tisi
##gol
##sal
##ews
##ogiri
kuta
menemani
pud
pack
##ines
melimpah
pelih
katalis
terlambat
army
toraja
mengusung
engineering
eup
just
sans
didampingi
kebon
krab
kabin
beku
tuanku
justin
avenue
##unes
##roe
infin
##ache
scot
birokrasi
menaiki
tl
##ajaya
kaf
luis
lyon
ramp
diuji
##ilet
ekologi
potent
ramadhan
beralamat
job
ubi
bertani
perf
##adius
prasej
systems
sciences
kaku
tala
diikat
##aios
korona
eksplorasi
turis
paparan
##vier
rotten
##rakarsai
buck
betapa
##urutan
##eke
dipuji
pelap
baltik
##engku
relasi
potong
lovato
manager
meraup
##nahkan
##boy
##idon
berbalik
maklum
##emplar
short
pesanan
prime
sederajat
nal
##atsu
anglo
##unduran
grace
penghulu
valley
menuturkan
chaplin
heb
semester
motivasi
##lementasikan
xiao
alor
praha
##ipa
menghuni
terhenti
permen
##ondria
sayyid
pelepasan
bok
##olin
disarankan
##ehr
kepemimpinannya
alexand
pewarna
##agnetik
pyth
kekasihnya
kemasyarakatan
agam
musta
1872
direkrut
ditutupi
fluor
galaxy
##untukkan
##jakarta
##engat
##agangkan
telanjang
bourg
cent
vakum
##eron
##etra
tersimpan
##ushu
botani
berkekuatan
gaib
jingga
mih
##osongan
##eca
emma
teknisi
datab
jonas
fundam
again
five
kelinci
sekumpulan
##illo
madya
opsi
eyang
respons
take
linear
ugm
##casting
cra
hk
hms
rangk
##oz
##syat
##eger
karta
age
berjenis
pdb
tangkai
singgah
hobi
didek
urut
##ofil
mandala
##omodasi
bersahabat
bolesław
potentilla
gb
dimilikinya
##evich
sate
schumi
degradasi
diabadikan
periodik
hash
##ead
bibit
berkulit
maut
bumn
stockholm
amaryll
aristoteles
pencernaan
lake
##entif
##elek
barulah
chad
mengharapkan
eksemplar
salatiga
batubara
mys
tawarik
berkomentar
fondasi
philadelphia
peliharaan
amaryllidaceae
gos
##alihan
##ilian
##rog
penerusnya
menyeluruh
deret
julia
integral
core
ogan
pemeluk
asri
korespond
taks
diculik
hee
baker
rudolf
##grafi
dinikmati
yatim
html
gyeong
##adion
##edian
##into
persid
hamengku
pendukungnya
purnama
bmw
prasejarah
anggun
ketahanan
peledak
penyu
usd
mempublikasikan
eksis
bertingkat
1861
humor
danny
##iley
bertak
merintis
##etti
berbau
milisi
diger
mutasi
ketergantungan
##phy
antologi
##velt
xiii
khalayak
observatorium
gantung
ih
wonder
memberlakukan
dekret
petinggi
pemandian
parameter
##rajin
tawarikh
fusi
katakan
ronald
##dir
menghimpun
polin
stanley
ottoman
##didayakan
gym
mck
##asius
dipindah
disaksikan
taruna
##ujudan
production
mercedes
arifin
diperingati
##aly
##itun
##ungun
##ungut
melati
trilo
hakikat
sasuke
jurnalistik
##daya
keta
kemiringan
membiayai
##liga
terpasang
iron
portal
penelitiannya
michel
nickel
##odinamika
##wai
##wagen
melengkung
difilm
1980an
seharga
mengorbankan
ensiklopedia
samsung
yudaisme
ast
pengrajin
place
butuh
terpusat
balok
syi
tribun
assist
dongeng
background
memorial
penyediaan
ranjau
idi
jaw
kiss
nih
kadal
1876
bercampur
ez
kung
menek
##orp
merangkap
penyis
rekonstruksi
##ological
nyonya
kapitalisme
##bell
##jono
kerucut
barbar
meiji
six
pembangunannya
stage
petersburg
##strong
jejaring
kesetaraan
teoretis
susah
wetan
yaz
##ubern
stm
gray
korpor
berlalu
nyai
gin
##sir
##udaraan
trim
roose
moneter
##tisida
tersel
monte
metac
kurdi
staff
slot
fleksibel
dall
pai
menamatkan
##akannya
kerum
sebanding
phill
glas
kegubern
pompa
mengutamakan
menyir
sebentar
gregor
fortun
mikroskop
eksperimental
bojonegoro
drop
##dong
##lek
##idrat
spar
kemudahan
membicarakan
pemberdayaan
percera
broadcasting
kegubernuran
euk
mika
##pes
##endy
akut
dipertim
panembahan
penerj
rahim
akuisisi
knight
legiun
hassan
rembang
ubur
##ress
diangkut
##ontan
protagonis
teaser
canada
dup
##iang
mengutus
pengoper
##char
pembiayaan
buang
edition
mendeklarasikan
cekoslowakia
aa
##isensi
##arium
##urian
##ungu
##epsi
kontra
##tingen
diperuntukkan
tuber
babad
gaza
membubarkan
tomato
##zin
remix
database
##km
##omis
kesho
khmer
pembina
augustus
rhein
heran
tut
##rir
peneb
##anjing
kabut
absen
batara
khotbah
siak
kate
bei
##izat
talk
auth
iwan
jajak
piring
##hna
grant
transl
##atural
pacarnya
neneknya
bengkel
kaitannya
bertekad
iq
kov
##yg
##erinya
keliru
ditentang
##grade
supern
hayati
sitkom
##ilhami
##nd
##arif
##iper
##antina
aircraft
miami
globalisasi
subsidi
##etto
orle
##ajai
daim
berkeliling
persilangan
berhala
penghancuran
bird
hamburg
capit
wajahnya
streaming
mahabhar
dou
einstein
mora
rinci
##rh
seven
##unahan
menyoroti
##000
##cion
tercapai
ahmed
praktisi
1867
nikol
tinju
roosevelt
##iser
##omas
##thia
teen
ester
pound
azhar
1873
ujungnya
buatannya
beraliran
honor
hierarki
mitsub
gara
wer
##elix
melihatnya
valencia
penyebutan
##ederhan
momentum
houston
hed
terbilang
dahsyat
diabetes
beruntung
dipertimbangkan
##kus
inov
##okar
angola
mempelai
drag
ski
monitor
munich
napas
kreativitas
##bola
##idel
barbara
puing
taipei
1868
didalamnya
##likasikan
##awin
##egas
##okl
##ublin
balon
penerjemah
clas
exper
morning
bolshevik
komentator
sketsa
##oga
##asem
indy
##ipe
##eve
angkut
sleman
toleransi
matematikawan
hutang
trilogi
mangga
rela
simal
##bank
##adaya
terumbu
1848
krip
anthrax
megal
mitsubishi
zero
##sar
##tuan
chop
abri
enak
hidey
##elopori
wallace
kebencian
lans
##lock
kepunahan
abdi
demo
bermuara
##terior
toilet
dpd
dora
##run
##pro
##emaran
asmara
sekjen
parade
##tanegara
militernya
persaudaraan
##integrasikan
keshogunan
nos
diajak
##amuan
##ekalan
penangg
##alion
berdampingan
lead
kasta
betul
berakting
##enhagen
nop
woman
perorangan
##sif
melek
kemunduran
dimungkinkan
hook
liriknya
dsb
ekuador
mbc
nk
tesis
pengus
dispons
mempertanyakan
aktingnya
warsawa
happy
penyisihan
xuan
##iton
##idus
##upe
meri
aris
mangsa
solomon
integr
choice
eksplisit
mojokerto
tog
##27
##udan
disen
bron
palang
lux
conf
susp
mrt
memfasilitasi
camat
##yap
analis
pall
maat
meditasi
pemainnya
trade
pembubaran
##ektorat
bersikeras
cum
fok
ning
##sum
pengisian
##usahakan
schum
armstrong
bantul
predikat
hasyim
premium
tomatoes
##ulia
dave
bridge
kekebalan
memasok
1859
halamannya
poc
##mis
##adys
berafiliasi
##angko
##industr
##evo
risalah
autobots
audit
pian
pings
##rul
##tium
ambar
forbes
keny
lamongan
transport
lgb
##eis
sedunia
dean
guild
exc
tall
##rina
mengad
##odeon
ikat
zheng
cyber
buton
diplomasi
mangku
homoseksual
##tebr
meref
gene
wacana
orleans
vac
wij
##sson
berna
ditan
##ocentr
milenium
##eller
baden
elektor
plato
perwujudan
inspektur
lh
our
##hua
##engsi
##ortasi
##ains
keramat
chong
rumor
persik
diagnosis
bha
##okasikan
##isial
pengangkutan
sye
kebanggaan
rwanda
andreas
nem
mengolah
##etris
tran
penyangga
##ugat
gerhana
smu
kalk
left
##baharui
cape
##karnasi
ernst
penyembuhan
horizontal
brom
diperbarui
terputus
patogen
##othy
bhik
magnetik
##more
##fon
berkala
duke
fauna
when
cucunya
hills
imperial
berpengh
kartini
disponsori
occ
##idap
diabaikan
konstruk
administrator
pecahnya
gembira
##abilitasi
##odadi
pengangg
disamakan
chron
bersin
terhormat
naz
carr
dermaga
difilmkan
##kang
septu
dipelihara
amendemen
maros
##cio
itunes
garnis
bocah
bingung
weekly
base
##nih
##negara
penis
##sex
##trat
pertika
pengin
##indra
jaz
patut
antibiotik
revol
kepergian
1875
fatal
nuansa
seimbang
dikej
bermus
##identifikasikan
septuag
never
##anas
sewa
pengiring
##angannya
kera
kesu
dilapisi
krist
yosef
##ktika
text
xen
##cs
##atatkan
mentrans
##isans
penunjukan
spontan
##obat
shakes
ikip
studies
1970an
gregory
pneum
sih
soph
##pis
keputus
##change
telaga
romo
bergantian
antonius
helium
keragaman
hospital
nay
menelan
##ampar
penginj
indrama
imaj
##recht
idris
subk
gaga
banteng
kekerabatan
rangers
library
atribut
iw
##eros
pengalamannya
anggapan
polusi
shik
beograd
pedas
district
spirit
pj
##intus
keilm
##itiv
dili
jaring
luwu
bergengsi
##antap
nurul
feod
children
goryeo
sedimen
korem
kebing
small
huta
tingkah
lonceng
mahabharata
litium
zak
menimpa
barn
resort
tanahnya
england
nahd
penembak
stroke
keilmuan
##card
##ares
dianjurkan
mendalami
##pers
registr
notasi
bijaksana
lestari
iberia
zan
##git
grey
kapuas
benny
court
pendekar
datangnya
##istimewa
##laren
##orbanan
pertikaian
##aat
menafs
aparat
depart
##amato
fosfat
greenland
lopez
niss
##imoto
mengungkap
##tier
pasuruan
##lif
didanai
operasinya
nirk
jeong
natural
enterprise
cintanya
jap
mub
pali
zah
darius
pendengar
berlian
reporter
watch
renaisans
nippon
education
kanjeng
bou
buka
mugh
##zak
##ambangan
keas
bio
berkh
berpr
publish
decep
marxis
shakespe
indramayu
figh
merpati
pengorbanan
majal
runtuhnya
community
diagram
bw
bim
##gata
##olph
##indas
marina
kultus
muslimin
##unaga
bhutan
melingkar
vent
##usuma
##edarkan
kemerahan
bagai
ppp
sesudahnya
atraksi
##icollis
coh
##nell
daeng
diragukan
kasim
montre
didirikannya
2021
gatot
melemparkan
peb
paran
alonso
dibongkar
##ouver
regu
lawannya
abbasi
equ
tinta
beriman
kekosongan
hasanuddin
sopir
nickelodeon
nps
rantau
simpan
##hara
perancangan
##tron
alj
mahar
##enjatai
menembakkan
explor
pingsan
fau
soh
polda
shad
kimi
jol
sagu
##jet
self
pendidik
diteliti
kedelai
ditemani
episkop
bisnisnya
pengundian
arnold
lad
##lun
##egar
##ige
kostrad
belarus
persidangan
cell
damp
hawa
##alen
pelar
111
edgar
pemukim
menjelajahi
kebingungan
bomba
##esahan
##ogaster
sentai
departem
penyajian
##ript
zaitun
spring
elektromagnetik
bayu
##iagn
penarikan
turner
laris
inskripsi
have
##bie
endapan
diperlakukan
kleopatra
sirkulasi
ij
yeon
##lung
asim
semut
firma
filosofis
arizona
kesi
megah
pij
merumuskan
##sie
konsensus
pecinta
alexandria
bercak
capital
lost
##zaki
##iae
##aea
grac
##tega
pusatnya
dokumentasi
keberangkatan
conven
wonos
memecah
garden
nafsu
chinese
gob
##pek
seo
inang
antagonis
akustik
mendistribusikan
animation
next
edin
rugi
rao
##bolinggo
dilepas
oliver
jor
mpu
syar
diin
##elor
##irk
cru
1877
kilogram
kokoh
hank
##olaknya
daerahnya
popular
christmas
##ushi
terku
dihapuskan
##inee
mantel
niaga
elisabeth
yamato
bebatuan
ombak
garnisun
shakespeare
kogn
zhi
##sha
##cy
##upuk
warganya
bey
hyang
gros
tuban
##kn
bahari
melacak
##opros
genom
perusahaannya
erik
sabun
picture
dihargai
deh
seung
##patib
##otrop
##obot
ende
beast
fisher
##esmia
wafatnya
##iskusikan
septuaginta
##dr
##face
##orama
antu
temanggung
leiden
menggantung
##nifer
rank
##erv
jurnalisme
##organik
privat
pembahasan
dop
##enzo
dipicu
##cheng
krit
terkaya
populasinya
##ewaan
fransiskus
mempermudah
##efisien
pengangguran
nirkabel
ciam
melem
strata
relawan
berakibat
diharuskan
fasis
hello
##itri
##apak
ade
bersel
menempat
##sono
notaris
induknya
##mawan
##ilas
##akarsa
ekspres
##elius
lucas
eud
pach
##etul
##aringan
##oret
##ampas
##ept
surin
actor
transmigrasi
satupun
produktivitas
etnik
pepohonan
pengajian
gilirannya
dob
kaj
nina
och
rana
right
##cadion
##eler
pemakai
kerta
ustad
moun
common
gomez
lithuan
iphone
nanjing
##osia
dirintis
sentuhan
repl
eddie
ditemukannya
kendala
keberuntungan
konvoi
doctor
cengkih
getah
hr
joy
bereks
##atua
konk
disimp
berdaya
gelang
pix
radioaktif
mclaren
hymedesmia
maklumat
jih
lec
##ving
diaku
##tui
##ulator
##sein
sham
berpangkat
gelas
diberhentikan
koch
##ografinya
mycale
pantun
mengesahkan
glukosa
ratio
vag
##cons
merata
##antho
optimal
ketidaks
gundam
##apian
memintanya
##abo
suff
##hof
1869
mengkhususkan
ciamis
rapi
wangi
##gel
##ikawa
kelel
##hiro
teuku
salomo
saras
glik
1874
##umsikan
anatomi
wawasan
hig
oil
##tn
##26
plur
haz
impian
austin
kpu
##qa
adela
memantau
##ongg
1840
realis
esc
yahya
peternak
magnesium
aba
ole
wajar
terburuk
memanj
nova
merekomendasikan
pahit
1863
ghana
perca
kelopak
##obar
berbel
germ
##astro
langu
europe
bertuliskan
perceraian
kesuburan
liri
naj
watu
##aparkan
pengangkut
lie
cukai
fermentasi
diusung
born
##rihat
##enep
##ulas
kebesaran
keluarnya
monc
keberatan
artist
memperlakukan
##budur
fluida
yunus
npsn
guj
##24
##uno
alliance
watson
kedudukannya
pemrosesan
salvador
cf
tyl
##inannya
berkes
sedan
darul
240
selebriti
jorong
sax
komedian
berkonsentrasi
direnovasi
badannya
garcia
energy
747
fang
lend
##langga
choi
penyal
tabrakan
1960an
ocean
dublin
hengk
xiv
beradaptasi
menginspirasi
arteri
halmah
tangguh
raff
organization
flandria
simalungun
dac
duc
feri
item
iri
##enk
berurutan
merangk
##endaki
kedu
piet
mount
rotan
sambungan
hangul
##omposisikan
pemadam
rash
##gung
##imalkan
termal
lumba
queensland
cord
lik
qa
##omya
dikontrak
##akarya
lion
commer
pagelaran
body
borobudur
bps
##dp
##antin
plut
kurt
denda
mengekspresikan
teorema
syeikh
##kara
##kati
##umb
seringk
##undan
kekun
perkelah
perjamuan
path
1990an
pemiliknya
boyol
southern
freed
pembaharuan
aviation
uzbekistan
jaka
nuran
##eas
##akala
kei
##andan
berkenaan
martab
berpura
bermunculan
pion
comics
kenegaraan
##tico
yoon
halmahera
ego
lod
##asat
##urung
##ipal
kepiting
ditimbulkan
nazar
kontraktor
tenun
xiang
##astraan
bertakhta
dae
ubah
##gawan
##oras
adr
merger
ditengah
kedai
about
sumenep
stra
asetat
hiroshima
##tebrata
dra
##gow
keab
pertunjukkan
pendak
anggap
chrom
tiber
##laba
kamal
230
farm
diingat
colorado
aspirasi
lgbt
mw
rawan
index
##dova
penyam
##ellus
##assus
novelis
muf
absolut
lithuania
sabat
##sol
##wid
##vers
tig
memprediksi
herbert
haiti
qian
rika
tb
##vet
##fia
merak
##egu
serge
probolinggo
barong
tham
kirk
berwujud
vital
##ael
##inati
##idad
memak
##aiyah
pemecahan
prost
dipekerjakan
email
coel
jennifer
dipersiapkan
kaukasus
mandailing
liriomyza
fib
##ipan
##than
dirjen
##obe
petak
peranti
flag
mengkonfirmasi
ziarah
gembala
dynam
##apura
memat
pemusik
masy
thomp
##baban
dijatuhkan
jaga
sweet
gemar
hm
lencana
siri
ibtid
kenapa
seringkali
perkelahian
days
hepat
wag
##emukan
input
terampil
dipopulerkan
misal
ibadat
komplikasi
tunas
output
kids
race
##uny
##esz
##imar
##anduk
indische
komuter
sufi
kesed
membenarkan
pelengkap
##lix
haluan
istvan
dicetuskan
##ombolan
bergel
oslo
view
permusuhan
guadalkan
cumi
##atib
marcus
fren
##ophy
deras
kodok
chief
guadalkanal
holo
mack
uud
##yod
##fin
##enus
sesep
terisolasi
keped
konrad
kronis
nee
oblig
dijatuhi
forest
kejutan
beratnya
karanganyar
sofia
penandatanganan
##ocentrus
edinburgh
##elawan
##itarian
##etr
dipandu
marco
bale
tepian
lift
tarikh
bawa
##bagaan
keluhan
chak
pln
ekstra
pencak
gaz
##ysis
lennon
tawon
survey
2024
prosop
maksudnya
kesetimbangan
departement
berakar
##udian
##otes
atm
pelita
dibalik
warri
##arisasi
saudarinya
sukarno
samosir
suriname
##bet
diy
menug
##eso
##terinya
##okat
menyangkal
kerah
##ohong
tanz
harganya
##teriak
mengenyam
nominal
gadjah
pembuatannya
sahamnya
informal
menekuni
rihan
##sang
ketap
mengev
anis
alc
terjatuh
hipp
fosfor
didapati
megatron
memperbolehkan
maatsch
##aland
meminum
##truc
skrip
psis
mariah
##ktop
handal
jusuf
lloyd
habibie
memfokuskan
baekje
##cera
##ermo
berteriak
anto
dikerahkan
ilir
ceramah
interaktif
dicap
antarktika
scope
##ether
##appij
##icolor
collins
hidroksida
antusias
linda
menantu
kerinci
pembaptis
insta
presentasi
agustinus
koefisien
karakternya
voli
spekulasi
gayo
nopember
bhikkh
menempatkannya
aro
vanc
##kham
menip
##eline
##elajar
prize
##otongan
isteri
shot
megaw
1200
digoreng
penggunanya
##utradaraan
nirlaba
kandungnya
hidayatullah
leopold
650
cag
cuti
##enna
##atani
musuhnya
diteg
##ansemen
cruz
mother
cinema
terjadilah
kepengurusan
menafsirkan
felix
ita
pekar
perus
prek
penyusun
shel
1600
stars
rudy
services
menginjak
gali
proyeksi
desktop
kubur
pembela
bermuatan
inflasi
kasino
kann
zamannya
pemberi
detasemen
rihanna
##dar
praja
sebaran
atta
ayahanda
antib
alamiah
lombard
kaget
rrt
##ipula
kaidah
marcel
jernih
insan
sukarelawan
ekonomis
diperdagangkan
brooklyn
method
montreal
sb
touch
visa
##emas
berli
##orkan
##iha
spl
##ayap
bias
penyul
gunawan
petisi
xix
kubik
jod
tenda
##star
##pak
##ajakan
alergi
tell
leeds
silam
bourgogne
##gne
##allah
see
##imasi
alh
berdamai
kompreh
volkswagen
dallas
cp
eduk
lelah
stok
didaftarkan
##ucon
kebajikan
abbasiyah
hoh
##aluan
##eksual
##ebas
kompatib
terduga
demang
banks
ground
committe
hunter
convention
##86
##abaran
berkuda
##anggapan
blora
petahana
industrial
raga
dinaikkan
fia
jp
tanya
##tom
##ss
##zburg
##tress
warnanya
terluas
silva
mycomya
fernand
robinson
were
##rana
membuah
##utunya
##kaido
graham
##owski
##encer
##awatirkan
##ouin
supran
jurang
tomas
lotus
ferry
terakreditasi
hunt
##gae
terbangun
##aban
panzer
dekorasi
##cabang
digali
cool
pandu
##head
damar
memadukan
menumbuhkan
neh
pawai
tc
shonen
sierra
budha
remake
makamnya
##wil
##erg
indiana
orange
##ohama
dida
coul
##oya
##ebec
bart
chandra
kaus
mencatatkan
dimahkotai
##empar
takdir
mahir
clinton
songs
maryland
spiral
##hima
##aminasi
##egradasi
karunia
##ingkai
ditanya
##turn
bandingkan
perker
murray
unggas
federation
sesepuh
kanji
lyc
santan
penunjang
##rough
asma
indikasi
##otasi
pendingin
suw
anggrek
mobilnya
ramayana
jenazahnya
atlanta
kamerun
gill
hep
tana
##rup
diferensi
dikti
##ohidrat
pelangi
usman
hokkaido
silikon
##oprosopa
qura
##odus
aria
sekutunya
tengku
##inius
lear
trofi
empire
vampir
penampakan
ibtidaiyah
wati
##onit
##uty
epid
exchange
eugene
pertamina
##hardt
yokohama
berprestasi
canc
##donald
##iph
distributor
##ece
katek
pabrikan
lasem
##ultural
penginapan
##irin
##ambungan
##ifi
kekal
digulingkan
molekuler
##organisme
kreasi
berlabuh
halich
manggarai
maatschappij
fellow
tarakan
ventr
zel
##ende
pramb
ambang
lebak
musi
shell
eparki
gelarnya
perpisahan
copa
rival
stephan
thompson
sass
melupakan
penyesuaian
##ritic
liputan
brigadir
dikemas
dpp
guardian
manuver
menyiratkan
gui
rangga
tos
vet
##ان
seakan
##isin
##oles
menyalahkan
pelarian
konsesi
bertolak
##uliahan
mengawal
monopoli
ramalan
much
disertakan
##uyen
bible
##obosan
disimpulkan
swa
##ου
##apolis
alab
aransemen
dikombinasikan
bersuara
khaz
sumba
coast
suplai
exoprosopa
dahulunya
##onotus
walker
mengurusi
praktiknya
nicolas
steel
pekarangan
jawatan
bercabang
penata
##udu
menyembah
dicantumkan
sheikh
sangk
##boro
##emuk
menular
alif
thr
budap
meninggalnya
epic
##ombak
professor
muna
parlementer
1866
shogun
proporsi
komprehensif
oro
##rar
dansa
##uha
##opati
thera
sinilah
##waringin
produknya
mengantar
eag
moto
dipati
##ontasi
influ
simulasi
dibudidayakan
##latul
simpsons
mengecam
harrison
zam
##ilena
berambut
##oru
##eko
titu
eddy
##minster
tabloid
transformers
pengoperasian
##jat
pemuka
ship
kekej
maurice
abstrak
kritikan
bae
cemp
beranggapan
meriah
pertentangan
pring
marne
berpac
panik
topan
melintas
konsultasi
fisiologi
mengesankan
melanagromyza
committee
##ved
##qih
##enko
##ulatus
arang
musibah
labu
korintus
kraton
elvis
sidd
1857
genting
nubuat
hibrida
bermasalah
nissan
dus
roc
vh
##ilustr
pemakan
##ications
berlapis
##ophorus
industry
page
mhz
kuantitas
fortune
vancouver
tp
##inkannya
##egaran
##ampuran
pengamanan
##opol
genosida
polos
cluster
pakta
aborsi
budapest
sima
dipukul
##chu
diset
##undaan
reuni
konspirasi
schwar
##wayatkan
performance
kesusastraan
didatangkan
mikhail
metacritic
want
##ukupi
meresmikan
##asaannya
pembom
larry
haruslah
islami
hiz
mendesain
memusatkan
pain
rani
##kas
berib
karantina
atlas
batalion
perkuliahan
yakobus
sesat
sabar
isaac
inovatif
kunc
lorong
##jai
##andro
menyalurkan
##antunya
koma
medical
petang
campania
aliyah
moldova
mikhael
eurasia
karbonat
lesbian
##imun
##ihnya
democ
##ofis
bangkai
berkeley
romansa
euseb
prabowo
saj
##olus
calcar
antv
sepeninggal
hasrat
connec
solidaritas
saks
##dah
##zawa
diev
menolaknya
##estra
mendahului
##eaux
regnum
ambisi
tumpang
electronic
tanzania
oman
menan
anorganik
melemah
messi
salman
birming
yesuit
quebec
collec
yudea
tukar
##arthur
zurich
digerakkan
menugaskan
birmingham
kd
leng
##uinya
##70
mendo
##irs
kebaktian
pembal
geoff
money
##trial
ayub
1862
pariaman
menginvasi
squid
kastilia
diwarnai
diutus
##isap
terapan
dituntut
membalap
sendang
##elles
youth
avatar
utsmani
claude
hijri
melempar
bont
mab
ruh
meragukan
serbuk
medal
##ijk
phot
kejang
konfr
gaul
1865
tinjauan
diadili
ptolemaios
suspensi
rip
vand
yani
##buhi
##ewakan
parti
1815
##afi
yahoo
prediksi
seleuk
hibah
cind
ija
jawi
lai
lansk
lutut
rig
traf
selisih
arema
kedekatan
ilm
leuc
rizal
##matius
berkurangnya
arktik
department
nation
zee
##85
##pha
apok
##acle
plant
teladan
sejarahwan
syafi
mnet
other
tambah
ves
##inju
perancis
##ayung
##okong
selera
##inding
menculik
berkenalan
membelah
sampingan
minh
majemuk
contin
sesekali
evans
mikroorganisme
hideyoshi
raffles
bilah
ipa
wł
ying
##raja
##xx
##adh
komika
make
mahak
biner
multin
koptik
mukj
##fsirkan
menyisakan
fuku
slav
##yub
##adangan
keistimewa
##org
##olar
pemus
##awah
saga
pendeng
##the
penculikan
toul
generator
yeremia
bersemangat
mia
##yra
##emis
memesan
##ege
swadaya
diwujudkan
stereo
merespon
ketapang
lanskap
fujian
goku
himal
##gensi
##ilda
##inth
sail
labuhan
paragu
makkah
terjangkau
reak
della
herge
tabu
alasannya
christina
panggang
tiran
beris
merapi
barak
##erius
turn
##ronim
herodes
##ylus
sembari
pinggang
copy
##castle
adelaide
boyolali
kra
vib
##90
mematuhi
##ians
##opoda
pele
penyik
berhati
penghujung
##onius
tenggoro
perhelatan
yesaya
propinsi
menaklukan
pemasok
vocal
decepticons
futs
gut
hoff
sg
##ount
terdepan
membesarkan
##tenham
##aff
guo
holmes
##utiful
tajik
franco
village
churchill
ritel
bhikkhu
sf
##rell
dilanda
boom
purbak
michelle
##escens
ontario
diti
##endek
dipulihkan
##undukkan
airlangga
acantho
imag
alkali
giat
simbolis
princess
kashmir
peribad
gregorian
yar
diat
##onaktif
##agh
sekelas
angsa
kedamaian
kurva
##cial
tunai
bertumbuh
kesebelas
##mac
##eong
diandalkan
##ikot
##ampton
alpen
harold
akhiran
##inavia
penghalang
digubah
noor
macarthur
kimiawan
nurani
flam
mv
ronde
##oney
berawak
merambah
##icle
apresiasi
diperiksa
kurung
berlindung
terluar
andrea
cv
##uluan
##etkan
menjemput
pengunjuk
sebetul
210
etim
winter
donau
trauma
podium
jamaika
embrio
majalengka
purbakala
##kong
##wall
##ilum
##alie
menyala
##amannya
baba
andal
krak
jaraknya
##ature
erwin
industries
wakilnya
raider
mandar
imperi
karbohidrat
bombay
buc
kens
##nos
##uluk
amanda
putar
subd
exocentrus
rasyid
naskahnya
kios
chao
schltr
fei
rubah
memasarkan
##upkan
prosa
##acy
##ches
mendanai
tempe
##lius
##ocar
tengahnya
edge
ketiadaan
##ombakan
pegangan
financ
louise
menakjub
sambal
wonogiri
beautiful
codice
atletik
dad
##was
##amed
perindustr
##rokan
##icola
##icornis
poli
moderat
room
walk
diamond
longsor
advent
rintangan
nec
nakh
pks
##kam
aktual
ultim
pinus
lucy
tirta
jatin
tumpukan
ishak
cafe
saturnus
sebetulnya
hbo
##uwa
penump
mencur
##ormal
gagak
independent
serdadu
comeback
futsal
ngab
pug
##zzo
##turi
bersep
##ids
##iani
arak
seku
kaitan
surau
tekad
tampan
craig
psikolog
##chaet
navar
husain
hussein
information
ios
lui
##hra
##alar
##eluar
##idas
menyinggung
mann
emir
bloom
terbaiknya
padatan
sikh
helen
piston
bilateral
mughal
penyiksaan
perindustrian
kuh
kena
##bow
alang
shop
joint
bergeser
curam
instruktur
##overy
partner
philipp
diasosiasikan
viking
friends
ery
fuk
kuku
xa
##angsa
##ukses
##umpuhkan
lega
##enstein
tail
boyband
dorcadion
mangkuk
menguatkan
building
flo
xy
##21
menenangkan
terobosan
alokasi
pengamp
ariel
dapatkan
amy
ekaris
113
exec
morfologi
ralph
bundesliga
mukjizat
550
bs
mok
##uv
##toon
rex
bayang
sopan
diproses
government
menakjubkan
manj
vihara
##rc
##gender
##shan
bertukar
amonia
stres
makau
pemberitaan
logis
gaon
##ilustrasikan
paraguay
djo
##αι
diedarkan
segen
pent
penundaan
ord
oranye
##onte
gear
lembu
primitif
kantung
galangan
rush
tembikar
lenyap
wonosobo
oak
rita
##uil
##has
##mia
search
dani
##utsu
##acunan
palace
kebersihan
sltp
swan
konduktor
ketebalan
senegal
sendirinya
mempertemukan
modernisasi
260
##oksidasi
nguyen
command
kansas
bojong
jew
yap
##jk
##fb
spot
arashi
##ambo
saul
##hira
##warts
ditafsirkan
nano
security
kenyamanan
##enuhan
diikut
prosp
monako
nikel
1849
justice
dipecah
harmoni
acanthochaet
kik
tac
##vik
dion
##idis
##asial
mengiringi
penambangan
##ebe
pemotongan
aru
direbus
kuwu
digel
pencurian
##ombo
lane
##heed
memprotes
griff
challenger
bersebelahan
bk
hae
mohon
##ongo
##antasan
mahat
bald
mewajibkan
sebabnya
sandra
gustav
pemerkos
instagram
##cis
##ов
##amaikan
##ebra
##sec
ask
sersan
samaran
kemerdekaannya
boris
kekuningan
acanthochaetetes
gris
poh
sasis
##esus
##apur
merokok
oral
kelangsungan
##mania
ding
jeremy
kolabor
hermann
difungsikan
niis
rotter
karaeng
bidan
crystal
kronologi
radang
xbox
keys
##aps
aland
storm
bav
ekstensif
hamzah
rajin
syariat
veget
skandinavia
lockheed
membuahkan
mentor
menggun
##tiban
kelelahan
isolasi
pasha
menghapuskan
##book
ramon
hymen
pandangannya
##ibusinya
khalid
glenn
kancah
calcarea
vip
terry
membesar
##ife
##ontin
build
kampar
kawannya
scar
fish
westminster
purwakarta
diperlihatkan
diurutkan
sulfur
kontinu
malayalam
keistimewaan
##asah
keajai
kemul
seketika
##giz
lainya
mendekat
dimeng
terbenam
##este
peace
neil
katup
instan
infram
newcastle
charter
payudara
timbulnya
arief
getaran
diberitahu
asperg
author
pub
teri
pengesahan
kepler
sunnah
kolektor
##ternus
nobunaga
wellsi
disebarkan
kelembagaan
inframerah
asi
mual
##pad
kaur
romeo
monas
##artney
exo
##nett
navy
nilainya
fundamental
keajaiban
laj
tung
valu
##uber
##uasan
##athi
##utang
##etz
aren
lava
##evi
warren
modus
iringan
pagoda
gilbert
republic
berdiameter
nahdlatul
diakuisisi
ekaristi
canth
lb
nestor
tuna
##ission
##ekah
mere
##rob
karam
##cheon
miles
kapalnya
austronesia
ketertiban
rotterdam
luh
mengulangi
separ
##ebel
probl
##opolis
brut
##assin
tertunda
penegakan
definitif
polinesia
mangkubumi
dimengerti
mentega
##idana
##antar
soet
gerombolan
rez
mengaktifkan
##tical
sdm
miniatur
bengal
optimus
roberts
qui
##eren
##arso
##utri
ordin
there
umb
brid
mahayana
magang
guitar
yoo
kemenangannya
lelucon
glee
hogwarts
episkopal
moncong
##ubang
berbuk
antis
menyul
mencukupi
##ivan
baiknya
dihind
mahasis
ond
##enjangan
georg
bombylius
bodoh
granada
randy
rb
##kre
##uras
##ukiskan
mengup
##opal
##anao
chari
reyn
keji
ditulisnya
pandemi
yudha
##tapura
beraneka
ozon
vor
##west
##trik
berbaris
upayanya
metil
##biyah
elektronika
devi
sandera
1858
advokat
##ον
mush
dihid
guilla
dahlan
motto
kacamata
neph
future
##ography
mec
nisan
##esch
##ianati
pemat
##abisan
dipo
dipanggang
stam
penyutradaraan
terlarut
##ondong
phone
kegiatannya
tindakannya
infantri
voor
pemerannya
##adysław
kelelawar
władysław
financial
vog
zed
##buck
disaat
##ovi
dibilang
arabia
rahang
rahib
sabit
##anthrax
yosua
reichs
kelembaban
marian
berikan
##alip
sekurang
##thel
ditinjau
idul
carey
rossi
##oloskan
genteng
rohaniwan
selangor
penipuan
himalaya
segenap
mint
##ging
##akel
penyalah
berbanding
##igrasi
siluman
verm
protektorat
granat
standardisasi
nevada
pajajaran
zimbab
baudouin
bj
##zlo
##tero
orth
pengej
amangk
diterbangkan
penghitungan
jamal
280
pasangannya
1950an
bidadari
dihadapkan
pemerkosaan
fus
##lich
##45
##emann
diperhitungkan
muz
maskot
nature
jia
##lay
##ulosa
##agne
spesialisasi
menyakit
desc
disuruh
##umpa
edmund
schmid
bercocok
athle
dipanaskan
pengampunan
fuj
##pot
##erensi
disempurnakan
##eville
didengar
batuk
soep
magdal
caranya
madonna
radius
invest
ayyub
royong
dikhususkan
catalunya
antibodi
multinasional
##onaktifkan
galia
hua
##alt
keruntuhan
deter
user
123
ess
novelnya
ditawan
huse
##ega
##ikin
##itsu
##olon
205
spider
apar
terlatih
padma
miya
redaktur
##ampakkan
intellig
middle
pengkhianatan
mustafa
kerumunan
pick
##eer
##22
##ambu
##eliminasi
sekar
negarawan
buff
##uez
pedukuhan
##romi
kesenangan
cameron
manchuria
##acional
anarkis
zakat
berin
mengonsumsi
teologis
moor
perhatiannya
ekstrak
dipersenjatai
wayne
machine
today
rehabilitasi
aspergillus
fiji
vl
##bao
penahanan
keracunan
marine
haris
krus
magis
observasi
yuri
##tet
##law
##ouri
##sun
##turis
##oder
lau
pelosok
pestisida
gelembung
pemberantasan
wald
henti
##awarman
1846
zainal
ice
nancy
pemetaan
karat
kafir
direksi
kreta
jenisnya
simpat
bhakti
sandy
kipas
travel
freedom
obligasi
fra
flight
mie
berbulu
##iday
seram
##epp
martha
peluruhan
eka
##erie
terbi
frame
krem
elite
esensial
kejaksaan
##elajahan
campbell
slank
lumajang
xiong
bijian
triple
hudson
penerjemahan
zimbabwe
oli
ura
##nnya
berselang
ketetapan
kompensasi
##angsari
kalung
dijangkau
galai
tabanan
substrat
seperempat
penyerbuan
kisi
##qah
perump
menjarah
kelihatan
afd
relik
diawasi
percabangan
husein
rebo
##raya
##tang
berter
menyep
paser
martapura
elli
metana
ipm
tus
desakan
kecap
satria
staats
bangkrut
brahmana
mccartney
prestasinya
kognitif
amangkurat
bakau
tow
##tit
##taine
adri
##ande
dikonversi
##roph
polar
didahului
mafia
emily
panorama
peziarah
dibacakan
pencakar
oksid
tenggorokan
hemat
mui
rosa
##lanan
##cat
segal
into
saxon
membolehkan
transgender
penjelajahan
stain
kondisinya
luke
peluncur
leonard
ditransfer
850
sich
mengembang
asiria
##iptanya
mencuci
bryan
andes
rambutnya
castle
pakubuwana
dkk
explorer
nota
sanc
##gis
memamerkan
pemanta
melintang
##laut
korawa
pieter
tersingkir
pemberh
basque
finn
hayatnya
sunday
mochtar
pianis
bersinar
tituler
beribadah
mug
sita
adh
menyuarakan
kelamaan
##angkalan
disiksa
angela
##oco
bubur
##lambangan
dibuatnya
pangsa
270
fatah
yao
eksploitasi
guangzhou
talang
##uks
pemalang
karate
ats
ske
mister
strong
##izu
gamma
##phantes
evakuasi
reduksi
dianugerahkan
pensiunan
jenuh
atletico
kesedihan
penyalahgunaan
##lic
##bolik
##vada
##angu
mendiskusikan
mencium
kesenjangan
##ows
transistor
menggarap
georges
5000
1837
lorenzo
membedakannya
diekspor
years
berlebih
elektrode
heaven
cangkang
##oordinasi
keputusannya
sle
sophia
##rice
##gate
##hui
##roto
savo
pendorong
berpihak
president
maharani
edwin
bijak
flying
dikeringkan
fast
##yamin
##atara
arom
##angkara
chick
partainya
senja
##uary
##ecom
makro
persebaran
bermusik
kanonik
212
terbesarnya
pose
helsin
rafael
dominika
stefan
lontar
lubis
berbukit
##akas
berger
lao
memproklam
##oceph
##embara
mistis
##entrian
cally
persebaya
konstituen
sidik
migran
##alogi
shield
folk
merkuri
pelacur
classic
geb
naw
omar
##iso
kementrian
asc
##ipto
trey
dirujuk
penghi
menerimanya
nyamuk
##quer
thomson
tennes
cemer
##raine
jamie
curiga
kannada
320
cai
hag
kv
pv
mengenalkan
pens
mey
resp
##cius
jamu
##entris
babakan
ketidakm
berkelana
wesley
pelarangan
eusebius
helsinki
fbi
##mor
##erk
##ingo
menggal
kontributor
thur
harum
bernuansa
meninggalkannya
##enggang
manchu
garda
basic
dikejar
callysp
liku
many
ryu
wet
##46
##ematis
prec
dikenang
##chester
terkonsentrasi
joon
silesia
bertambahnya
paramount
stein
halicl
ajax
berpacaran
kencana
##tria
astra
barb
##gunya
tembang
marse
gandhi
bruno
rodrig
harvey
jihad
ae
kalis
pori
##hay
##amba
##ikum
pentak
##uder
##etime
karesidenan
##uannya
##anced
dire
penyerapan
domini
330
bertanggungjawab
kuliahnya
##table
##awancarai
number
rij
tadinya
##dt
##osin
pengintai
diprediksi
berdosa
##kien
switch
##karbon
florence
sintetis
pastoral
winston
cun
##cter
##elangan
##kana
##enggan
##bui
belerang
timo
parsial
awalan
bath
irene
murphy
##onax
purbal
tottenham
cyrus
rpm
lakon
kiprah
dumb
instrumental
hack
sever
##ayama
akronim
##ipkan
berkon
##ecuali
bangga
jermanik
extr
normandia
##imbun
santoso
##bourg
kiper
konfrontasi
terbiasa
nie
##isse
perga
##ument
##osum
sekembal
konj
##ories
bening
bentrokan
menguraikan
santos
viktor
peredaran
kemuliaan
haliclona
sekembalinya
bolog
rov
zag
##arung
##estr
##edahan
pembatas
121
##tser
dennis
1855
widya
lorraine
brandenburg
bertiga
disengaja
purbalingga
aber
tt
yale
yellow
kotawaringin
sendi
rejang
tetua
terpadat
menerbangkan
tutur
perlunya
eras
myth
deretan
kopenhagen
bantalan
irisan
hughes
koronavirus
melemahkan
bada
##ads
berurusan
anonim
chow
islamic
pornografi
hamparan
sayembara
vista
vegetasi
marketing
aaron
peribadatan
##dikan
##adana
alim
##kaitan
esp
conan
berlangsungnya
basel
gulat
##oncong
yamaha
gita
sjah
tertawa
##tii
komering
bram
taktis
bawaan
digantung
cakap
kerabatnya
bharat
taksonomi
mangan
##lov
##gart
##anangkan
anion
##osintesis
thunder
mesjid
didasari
dibeb
gren
grim
hidra
yoga
torino
singkong
##oordinasikan
perumpamaan
d3
dow
kind
zara
penentu
##ampang
biokimia
monica
expo
puisinya
aspal
aztek
nagasaki
hendrik
hidrokarbon
mempersatukan
marxisme
##lokir
bodi
kation
oda
dikontrol
kaligrafi
##igen
janin
muller
logan
lelang
lawang
##sertakan
menyimpang
empiris
tadmur
crazy
alabama
##rd
##lip
##gakan
##ال
menunt
##etsu
semikon
##atius
laguna
pluto
urdu
##ticut
kacau
look
menyusuri
gps
muas
td
utrech
voting
##aput
##liser
kosta
##ussia
mercury
kependudukan
periklanan
pendakian
bott
menenggelamkan
##ophan
belang
kesayangan
##mium
sisinya
telapak
warni
mahluk
herm
235
kekeringan
lumut
##obiografi
rogers
olivia
gletser
nana
ou
##pia
##udo
##roy
kemurnian
genoa
emil
posy
##unggang
secepat
biarawati
purnawir
penyimpangan
training
perseroan
atlantic
pigmen
connecticut
xp
##dia
##tata
##29
##essi
meli
kartanegara
##ibarkan
subtrop
225
keberl
olahan
elegan
1854
merepresentasikan
kepedulian
##hn
##akura
meni
##elet
##ikatan
magma
##asser
dipercayai
mendiang
kasihan
pemberhentian
purnawirawan
##hyang
##ongs
als
semp
belle
##thes
true
kapita
pembesar
uranus
hoa
##time
sanders
##enthes
hond
hebr
tg
##rer
##otif
##eid
##edon
argo
##enistik
rakai
esper
sasak
inginkan
ommatius
laszlo
falcon
dikuburkan
cemerlang
posyandu
##bp
##xa
##arawa
prodi
akurasi
negerinya
biar
grum
##onsiliasi
lahirlah
petenis
scor
hidr
beauty
##batsu
tennessee
ips
##ouk
##yom
##arno
perez
memihak
##osol
##opro
ama
senbatsu
demonax
##hausen
ace
bangunannya
joo
##rett
dibentuknya
bercita
missouri
borough
perkereta
##bing
##bott
##mil
dand
##utive
serbuan
##angkung
korean
malaria
membacakan
##istira
ramadan
gugusan
##opeza
dipenjarakan
civil
serdang
mitchell
##bis
##28
##epit
diprakarsai
semoga
suf
ditelusuri
##enson
digarap
gagah
ramuan
temple
ricky
utrecht
jelajah
nes
stern
tup
##egel
alph
pengambil
##acita
##rif
ditemb
##antul
##asso
zhen
pejalan
kusuma
aleksand
patriot
cuplikan
sulungnya
nordik
lonj
maw
melayang
##intas
##ogp
terdeteksi
diminati
meet
provence
alexandra
pendiriannya
christine
stanford
gramedia
##remasi
xinjiang
erosi
hengkang
semikonduktor
limp
##enze
##olla
dikomposisikan
pasta
eko
##ompokan
blan
digemari
lingkungannya
refleksi
encyc
fokker
sorong
aden
mengalah
beladiri
senayan
harbor
kapak
konsor
##tisan
##illon
singles
lumayan
alumnus
kosmetik
jahe
owen
##iagnosis
pionir
##turisasi
cig
pog
##bir
##angun
menyalakan
disapa
perkasa
suporter
pencitraan
##kret
##lane
motogp
donor
naras
partisip
##onansi
1841
##ligh
squidward
ijazah
mae
tuc
##nop
##jadi
##flix
##usta
##ulasikan
semit
reaktif
##list
##elling
burg
which
circle
defense
1856
bunganya
##imbangi
menginap
tentaranya
feminis
keraguan
source
dialah
##oloph
##entik
brach
shinto
teki
gelora
pencuri
##bullah
wisma
keterkaitan
intim
kodim
##fried
yosefus
jh
##eret
##amon
##eless
karel
bibi
ketan
didakwa
khair
undian
saudagar
sesamp
gapura
sevilla
##ederhanaan
registrasi
cohen
martabat
pembalasan
gk
lug
##yuan
berber
##etil
pemod
also
##gigit
kontingen
mendik
temukan
##thi
polo
bertunangan
ulum
voldem
##market
1851
voya
bibli
mengeksplorasi
fath
oval
tyr
##akon
ulangan
krishna
prosesnya
peckham
helena
penemuannya
pretty
aljabar
voldemort
memancarkan
mengarang
mengidap
amr
porsi
bertemakan
##ylum
gaun
hye
lengkungan
curtis
jackie
jogja
capitol
ionia
psi
tulus
##hus
##jol
##jok
keith
##buri
##agri
pengatur
semisal
shut
##ontarkan
berlimpah
salak
haus
ukm
efektivitas
intinya
##eritanya
sorotan
lempengan
jazirah
french
font
##gor
##zyn
memin
baf
ditempat
##jualan
##intaannya
kolum
pangdam
pandeg
diaktifkan
grob
penyebabnya
deddy
megawati
berund
##uhannya
melaka
terdegradasi
##gani
shock
sou
pencah
flem
filipus
valid
arkeologis
costa
estate
hipertensi
galilea
quraisy
konsorsium
bentang
hugu
##ikasinya
penguatan
prel
klim
##tonik
terlestarikan
misinya
reptil
##aux
menyelam
fiskal
sophie
ngawi
berkomitmen
language
dys
weda
wasiat
##iket
terjaga
##andakan
sperma
mason
##acarita
dimasa
mischa
ampli
raksa
african
##shop
mohamad
tonggak
kencang
mountain
segalanya
bologna
crow
hin
##alore
##osat
diktator
1814
berbatu
grad
sinai
perda
round
kanannya
mayjen
louisiana
pemasukan
##works
ryuk
vettel
bever
ranc
s3
teka
##yen
##adia
uns
mengunggah
karma
kav
berkelompok
##iver
polis
batman
sinonim
dewata
transjakarta
dukungannya
cepu
mesias
menanamkan
langg
writ
yuki
##sl
kelengkapan
##otika
marmer
bran
stupa
kimiawi
paper
kulitnya
partisi
brahma
penegak
diunduh
dens
zone
##rata
##amil
##umkan
##umulasi
adopsi
admir
memburu
meled
kema
destin
shun
aires
trib
##oplasma
glasgow
jatinegara
aang
heks
kilang
dich
beradu
memory
temu
bernomor
burn
petinju
boot
##untingan
hitungan
mengkaji
nonaktif
mengubahnya
mrs
##ometri
cornelis
##akumbuh
memuncaki
janeiro
theravada
gotong
kij
nub
##long
##mata
##enn
meloloskan
##iput
sugi
duniawi
kompresi
##iterasi
tumbang
pei
salmon
musiman
swap
fore
##ofon
netflix
##inyalan
cemburu
download
harafiah
perkeretaapian
kakan
paya
##yawar
##upta
sepi
##endung
promo
semang
disum
##anco
penyembahan
mesti
match
interval
dome
vikariat
sentimeter
tulunga
aisyah
olympic
anyaman
dipercayakan
kekejaman
pandeglang
ech
face
rico
tawa
##jaan
##ια
##enerasi
penca
baginda
dikukuhkan
kuad
membaik
guntur
epil
luft
termodinamika
diseluruh
payakumbuh
magnus
mematahkan
diare
##akari
##odrom
mustah
genap
sinag
paud
gambut
keempatnya
busan
fris
kish
waz
##ploitasi
##arit
kepat
mertuanya
##rove
##adio
semu
kalib
sumeria
sink
naq
pemberit
##abelas
pahatan
##lett
menyeberang
1825
skenari
pengasuh
fonem
superior
gujarat
cij
kirinya
lati
papa
vision
##oti
##eleng
##esto
aless
probab
keput
disalah
stik
margin
ilham
affa
stutt
missis
pendahuluan
memanggilnya
bryant
korporasi
penanggulangan
guillaume
pemberitahuan
cesar
hod
##gum
kelayakan
kerapatan
parang
berjangka
digimon
dibentuklah
ambarawa
gla
##uap
##asci
menta
beradik
pris
saur
kedah
pesona
kuah
terkendali
simpati
executive
runcing
##emba
##tabil
##ongi
menyed
##amban
manakala
##undai
dihabiskan
##awija
##anggungjawab
administration
koper
cure
##oryx
memusnahkan
schumacher
bavaria
bef
dn
rri
rene
##date
sequ
berang
##ebal
setim
##ertifikasi
marino
transkripsi
amph
samoa
kontraknya
##count
evan
miguel
tatkala
##pinang
blambangan
kick
sali
##hul
##esona
##opul
dimus
pole
dei
metam
books
johns
kisahnya
##trocera
direkomendasikan
kandangnya
dipertanyakan
menumpas
punjab
memanjat
hern
##emus
alis
kemand
dirumuskan
##intainya
hongkong
banjarnegara
hisp
wiracarita
oberea
sophron
ct
hope
##yong
##elasi
inka
##ostr
##intasi
dirg
umbi
they
deal
##ophila
##hout
kabarnya
##stadt
clar
keterlibatannya
tragis
syams
dihindari
magdalena
tulungagung
cj
##dale
##jakan
##osoma
pelbagai
berbadan
palawija
klemens
buenos
##isasikan
swt
tarbiyah
bactrocera
##itorial
##tenstein
harmonis
gapeka
muntah
oxyopes
integritas
bingkai
##ml
##osan
pengalihan
parf
dilestarikan
##lies
##ilau
pencemaran
olga
pablo
aviv
melamar
joshua
etiopia
saman
wurt
##kia
##tukan
adji
artem
##ibia
tree
penyeb
##ontong
demografi
million
onder
jour
wiscons
slta
talmud
tangkapan
baptisan
clarke
brussels
wisconsin
lindung
##eal
##wulan
##ahui
##asw
memandu
berselis
reagan
bertah
##cao
lemari
petra
paguy
liberia
teddy
guangdong
##trukturisasi
ose
tungku
kemac
dist
chester
pasundan
sheng
mempergunakan
dibagian
mayer
antigen
bekal
galang
cyn
penyelamat
jatim
jesus
cnn
eunidia
mengikutinya
holdings
moravia
cann
hoki
mosa
selaras
##ending
prep
##atie
iss
cerodon
colin
ulat
##hoi
##incir
corp
faisal
galat
sakral
solar
firenze
mengangkatnya
deteksi
##ledore
mekah
demonstran
taraf
pengkajian
skenarionya
berselisih
kemacetan
cerodontha
ima
tini
##omand
mencap
pembentuk
image
bear
pagaru
berpendidikan
boss
foster
persija
estetika
effendi
##wing
##esha
alt
pertanda
gerard
stuart
boat
tindih
commission
1852
mengantisipasi
replika
lyd
tunggu
still
##ehida
mansur
menerangkan
##ellan
kesehatannya
##quez
jago
note
mengemudi
perampok
menghantam
lys
rangkap
##masikan
##jaja
##qing
##anah
##ilannya
##ingat
##iten
##sewu
##acu
julie
##ospace
canter
countdown
sensasi
roberto
pratama
berpenghuni
edukasi
pemantauan
dumbledore
##uchi
##eur
selektif
##otep
amd
suv
keser
terdes
pelan
bao
kapsul
cold
kompeni
##formasikan
dicurigai
rindu
gis
mond
nish
vick
##dn
##gama
##ough
##idur
##leg
##etin
melangkah
prakarsa
pendinginan
chil
shand
striker
membayangkan
obor
##caust
##osip
##essen
pemimpinnya
landak
stie
memaksanya
holocaust
glo
ito
##elon
##eden
##angsur
darm
pete
permukaannya
konfus
profesionalnya
menyertai
pemenangnya
nikah
brigjen
ditanami
learning
dv
iuc
tolak
##yte
##ajal
paradi
soeb
pusdik
katai
version
lumbung
##ampaian
sharma
kapitalis
proporsional
rights
이
##99
aki
dikarang
banggai
balet
##entukannya
kontribusinya
bakrie
assam
simpul
caroline
eyes
chopra
##yangi
##fur
##amalkan
##bers
menyamakan
kelulusan
dikepung
##ibo
ceria
medang
133
devil
cameo
1847
cipinang
dapil
bertubuh
gogh
access
fiktif
gs
moda
viz
##ios
##zzi
##ambangkan
menged
##eball
spa
pengarah
sembah
sejawat
kehabisan
burton
stab
dolich
##ogenik
##onfirmasikan
mengabdikan
prosopocera
cost
harap
tuas
teratai
adnan
##bangsa
melumpuhkan
trust
sedekah
kompak
ligan
dibagikan
benggala
ekonominya
##ocladius
octa
##sing
dipraktikkan
keprihat
isk
bisbol
##nium
##yatta
udin
majikan
mobilitas
invent
lunat
2022
##remans
berkecepatan
tyler
auri
haknya
##zhi
dipat
##elsen
##apannya
##olek
mengar
mengis
##agaman
##roho
menjunjung
chase
tempor
bishop
anders
mistik
benyamin
samaria
tool
phd
hex
bergegas
##issance
lawas
candy
pelaporan
riko
##atri
##emer
mele
seksualitas
keroncong
stark
abn
kehit
##erno
##erner
syria
kenyatta
hyundai
lucky
butter
cakra
permusyawar
ryukyu
kwar
pans
pimpin
##vest
##fen
##onica
teres
##olid
kerremans
afiliasi
monroe
datanglah
480
wahab
##stream
aerospace
niger
sanjaya
shalat
##lunto
meninjau
##omus
##odohkan
araf
##entin
konver
kaba
penyempurnaan
abidin
berpen
andras
hamka
##elakang
sawahlunto
columbus
pengendara
pkb
berpasir
yeong
rintisan
cimahi
parfum
permusyawaratan
fasih
##lal
terawal
mendaki
berkip
berkons
parma
ketinggalan
##obik
##laus
imamat
magh
tinggalnya
sarat
mandela
purwodadi
menghiasi
pujangga
##hala
menanjak
##usep
##imba
spora
baha
kaltim
##aksinya
kehar
josef
tapak
meletusnya
memadamkan
subtropis
kush
rui
##log
penahb
kernel
dilintasi
shek
##alist
nex
element
antartika
rekonsiliasi
##eyasu
ekornya
fatimah
orchestra
raihan
isabella
attack
asep
bts
wiz
##ים
sey
##agak
##eban
kestabilan
terdakwa
dibungkus
resin
andara
##ensik
pengusiran
muasal
mustahil
mississip
jik
tz
##yx
##unge
penet
menyempurnakan
kepan
komodo
resid
dres
1700
sule
jauhnya
legit
##other
semboyan
aksen
komisioner
nasir
1853
1835
eastern
berkiprah
##leks
menundukkan
##itaran
##oleksi
desanya
##doba
berkelah
##uncak
kald
##uliakan
dibersihkan
difokuskan
aktivitasnya
niatnya
1839
claire
trinity
diaplikasikan
pergaulan
pagaruyung
iucn
bih
zoro
##inae
penentang
##thal
dilambangkan
menghina
cola
murka
##ylan
kebers
nugroho
private
railway
ske48
bc
bolak
dayang
soto
terorganisir
##itari
##ulsi
orn
##edis
arit
kha
persembuny
terhind
##lytus
diakon
europa
eugen
menaungi
etik
gendang
ledak
nini
ntt
pisa
##rong
menanggung
##olle
##tial
206
##antaraan
##eway
suit
dibenarkan
memperbarui
##angguhkan
acal
bergambar
kirgiz
ghost
##angganan
selebihnya
russia
felipe
kartago
brutal
kow
pong
vat
##db
##ukh
##away
##ihannya
##ampok
serbu
##oprop
##angkali
summ
berbayar
dihidupkan
kasad
rekening
psiki
mamluk
mukim
trinidad
ketidakmampuan
mississippi
dt
nang
##pahaman
##vana
##ataka
searah
perab
##orno
##irik
##awali
melantik
karun
dipuja
pendirinya
ditahun
kesaktian
puter
kuota
usb
fron
kaliny
terpapar
derek
##osisikan
rhoma
knil
pelaksanaannya
memberitakan
theresia
represent
pneumonia
stuttgart
mosaik
fut
##ght
berangsur
adel
penangkap
keranjang
through
berdatangan
matematis
kharis
diterimanya
sumbang
ekstensi
minnes
need
hukumnya
patungan
forensik
bayan
simpson
perakitan
range
sekelilingnya
aver
lsm
zomb
##ruh
##lian
##alat
##asut
##ipi
##chel
##ects
poem
pembajakan
luw
henderson
champion
ambisius
tasmania
vulgata
perampokan
toulouse
jed
lily
yard
dised
berry
##engs
oregon
spac
selim
serambi
##anyu
1820
shima
pembedahan
##ijinkan
dituangkan
obyek
metrik
esensi
santai
even
turunnya
##esterol
sonic
butiran
tajuk
foton
dakota
mengabarkan
soedirman
diapit
millidge
gama
oasis
tunj
##bre
##alonan
menawan
##andaskan
dipesan
komuni
1812
##erial
bermimpi
buana
sukoharjo
kongl
tekstual
##caraka
yustin
reality
usulnya
sulfida
pgri
berkepanjangan
epidemi
liss
##55
##ekukan
berpegang
kramat
jerami
leuk
piatu
monaco
##ertaan
troy
##ears
rote
gemilang
counter
brigi
kultural
tunggul
athletic
cakar
hwang
vita
wemb
##rnya
##tografi
##ethe
alq
menyita
suar
trev
away
##ifu
penghinaan
darma
##ellidae
gambir
siria
verona
aveng
concert
istananya
herakles
kj
laman
mapan
##ikos
perta
##utes
pemangsa
spencer
##dog
suite
bersayap
senar
penyuntingan
##ocus
bee
urin
ngurah
ipar
aksesoris
hilton
##ogenesis
constant
dipasangkan
eagle
prospek
berkelahi
dengar
pyo
wai
wihara
##night
seism
##esalan
peraga
##endor
tray
menghemat
berlangganan
mengaitkan
pencalonan
simetris
hamas
dikeluarkannya
rotor
yudistira
woods
kromat
axin
tersibuk
##borough
penyeberangan
lunatipula
uch
wide
##illy
pertap
##oskop
sto
genera
maus
##ompak
##tona
terpisahkan
perdata
asalkan
##ofr
hyp
partners
draft
panggil
diver
tersed
palermo
neoloph
millen
noah
berperilaku
dayung
memanipulasi
mohamed
giliran
aristokrat
pemikirannya
diimpor
kesemuanya
berkerabat
hepatitis
admiral
neolophonotus
aim
itik
lili
mira
##fam
menetas
bagan
##optimal
thalib
dao
suz
envir
##ensor
##engkar
burhan
burger
pengairan
bachchan
sinagoge
wembley
ieyasu
nc
zar
##gard
##sat
##euh
menargetkan
memuja
##ihatannya
##ampi
dirasa
pembentukannya
acanth
rendahnya
menjauhkan
influenza
gok
##dil
##hwa
##alina
chile
pare
##evard
berdinas
kurnia
inspir
markgraf
versa
##lington
memangsa
##echus
singkatnya
gemuk
klorin
##ragiri
kompatibel
grobogan
fitz
jaf
wuhan
sew
menumpang
##ingham
mengun
mengepalai
##ossa
soc
kekec
andor
suling
jalal
sumberdaya
dibangunnya
demikianlah
africa
purwar
mengkonsumsi
playoff
bbm
horizon
mogok
meteorologi
pythag
loh
stur
yuni
##rs
##ted
diilustrasikan
intra
inangnya
##ager
##evic
##warman
berarg
365
340
ketidakp
prefek
1842
kobe
##rotoma
perantau
##oklatan
authority
cid
cali
kentu
zamb
##gle
menun
##omintang
##lee
kerala
lebarnya
##ovsky
marl
##ective
mempraktikkan
telev
penghun
1300
comic
##istika
leonardo
claudi
penasaran
liberty
bristol
eum
gak
qas
typ
##room
seruan
thal
##ogasi
kesempurnaan
ketahui
kuomintang
##tekan
suplemen
##tase
kenny
mimbar
every
##rolet
##leksikan
eye
xl
##nar
##iment
mengadaptasi
##ampuni
##abis
arung
thebes
korup
editorial
birokrat
##elakangi
adventure
bafta
baks
wrest
anus
bagiannya
disin
kecoklatan
rumusan
##astic
perbedaannya
diaspora
himne
berisiko
tajikistan
balistik
jaj
langs
veh
watan
wander
##lob
##otomi
mussol
utah
maeda
drain
php
mangrove
weimar
captain
canadian
lumban
##veland
sheila
guard
telegraf
##olepta
duan
gate
sora
wester
##dh
##hor
##zation
diem
tertem
##udar
brab
airport
bertekanan
##uarium
berjaya
balada
mulus
clay
##quis
##harjo
##heimer
bpd
dharm
giant
homoseksualitas
serpong
terbarunya
yazid
bagaikan
minnesota
mussolini
##anis
##areng
dialam
##eson
##okrom
isha
kecuri
##eha
##tenberg
koresh
terpopuler
guyana
buntu
psm
clara
clement
1843
##borg
titanic
rimba
sinematografi
terperangkap
koreografi
metodologi
marseille
erasmus
bic
duka
jeda
##ein
##yata
seti
##initas
##uten
kerupuk
direct
telak
petro
urat
pulo
duel
fior
where
mangun
ipb
mukh
panther
berikatan
local
memperdalam
nikolai
##itivitas
cub
##100
##atrik
diurus
##asm
menusuk
##idih
##wave
disadari
membimbing
sentuh
abel
salon
tercermin
coff
berguru
sharon
neuron
bawahannya
alhasil
problem
huda
vaj
##ан
sez
##ukaan
##omik
mercus
sepuh
prap
prol
parodi
membongkar
their
##eksinya
study
suratnya
priok
1845
cleveland
siantar
cus
wine
##ragan
##64
##ianum
##eportasi
aka
agro
##ovia
soer
##ompo
##ensius
satell
copris
bizantin
sentimen
crown
cherry
hannah
disumbangkan
mercusuar
fai
vall
##dis
##blad
menor
##itel
204
diminum
herod
disewa
judulnya
##esisternus
nike
rolls
penguin
ganjil
evangel
transliterasi
bwf
sichuan
##zynski
sophronica
oseania
##optimalkan
fig
pyr
##sit
##zai
tereliminasi
##ukainya
##ostik
prote
##chang
suryani
##oca
miesz
nagoya
tertidur
1838
conserv
sindang
browser
daimyo
feodal
krakow
hent
koki
lol
##tze
##enankan
##unyi
##ilir
##taur
pemutar
spark
##endahkan
andil
plank
comune
corps
pakis
nixon
kebangs
iparnya
kokpit
advanced
beatrice
ganas
leptogaster
kesalahpahaman
dampaknya
menipu
kijang
sic
yue
##hae
diunggah
##isit
##asiakan
pemes
pemenuhan
spanduk
##chne
aggr
kemudi
theory
terkumpul
kurban
misil
menerobos
##ineas
guill
betty
1834
cosm
hikmah
discovery
brussel
wazir
fic
fungi
mancur
##reb
##semen
##qua
##astra
menampakkan
mengintegrasikan
##edan
melebar
##ukanya
akumulasi
chara
##ifolia
sulu
##teur
eden
talent
francesco
jeanne
spiritu
##ographic
menteng
hwa
jain
muar
pitt
tita
##iram
mertua
alba
##alikan
tidaknya
##oton
##inting
chech
liem
depend
##temberg
##incang
siregar
farrel
rasial
disertasi
ditaklukan
valentine
bernaung
mieszko
3g
fabel
wajo
##erre
##arti
##ulatif
arb
##icz
disunting
kazim
tiara
sanggau
penyandang
harahap
matilda
##ensen
##kiel
here
peranakan
reno
leluhurnya
gibson
tmesisternus
koresponden
pebisnis
honduras
kehitaman
acalolepta
cet
pf
##cow
##jima
##umbang
##upp
##adium
##epr
kartas
##chn
##chev
sufr
berkah
dibiayai
bertengkar
neon
exp
380
memecat
##onimus
kelabu
hanacaraka
covid
mangkunegara
fukuoka
reynold
foreign
bertahta
ati
bilik
dd
dylan
mimp
yp
##mern
##kir
##alukan
##ekuan
merangsang
annie
menja
menyunting
kepastian
oklah
##enisia
terlama
terbawa
laph
simf
goes
##itius
raven
turkm
deutsche
eman
jem
##lid
##23
##onment
##idd
##uplai
##ampurkan
mendasari
lazio
tektonik
urb
albrecht
mewarnai
pencahayaan
grig
lk
nani
qub
##waffe
semar
konduk
disp
##ilio
pelari
penyampaian
diperbaharui
##oyama
herald
seberat
works
##akatau
publishing
##bottle
hers
ramping
saji
uin
wadi
xing
penn
##trak
pertunangan
kors
malcol
primata
##itional
amanah
##misikan
jeffrey
dorong
fn
ffi
kawanan
niz
nadu
zeni
##aruddin
diind
##isat
##ekam
##tiar
kelantan
price
sebatas
rej
##ungkid
perkusi
dijanjikan
dicirikan
extra
sandwich
autom
yamamoto
kemahasiswa
substansial
terbarukan
mahakam
gnu
##rim
##kab
##final
beringin
beranjak
##usif
teresa
meme
##abisi
abram
gerindra
realisme
katherine
royce
##sted
arsen
kolonialisme
1836
pitts
berkeinginan
pengembara
malcolm
bd
ces
fay
zab
##gers
bertab
##ianat
mengins
kepanduan
lazar
direvisi
dinonaktifkan
krakatau
##ucu
militar
naiknya
beir
karirnya
##ologinya
maskulin
favoritnya
rainbow
nephrotoma
canterbury
cb
nacional
##gins
##yanti
##wyn
terap
memil
##awk
mash
suc
##ivisi
##evara
takah
kras
131
143
diadakannya
pahang
nielsen
button
kyushu
1844
dakwaan
archit
communications
##yeksikan
intelligence
dual
etis
yag
yash
sepotong
##ubs
sue
##estro
##enistan
presid
141
islamiyah
hakka
eritr
unix
mengklasifikasikan
giok
fatwa
##budaya
pekon
rss
honey
lazimnya
mnctv
mangkunegaran
schmidt
sinkron
kemahasiswaan
gaj
ili
ld
yoy
##hart
terf
##agari
meles
biom
mencer
1810
1811
half
berhaluan
kalla
holy
suharto
##atonya
1806
pikirannya
##folio
peleburan
##aswasta
turkmenistan
balan
feb
rina
uv
diusahakan
keikut
##epe
##intasan
genesis
##laq
##undi
emin
ellen
acap
##ichy
##entralisasi
perbekalan
##tasia
poaceae
superman
cyan
##zhen
hendra
dalton
keberhasil
theodore
gerilyawan
culture
tunjangan
oklahoma
gers
ngo
vij
##aganya
alga
sekitaran
##emparkan
soem
maladewa
misalkan
##afalkan
leic
hermi
duryod
tawang
watak
menakutkan
1831
yehez
manifestasi
vera
yoh
##fish
##ingungkan
##amainya
indragiri
##ambik
pendopo
##chy
diaz
uma
kompromi
liech
sunny
guevara
sosialisasi
tersen
rais
penggem
muq
sikapnya
tiruan
##ledge
karnataka
kuantitatif
suffragan
pringsewu
etimologi
eritrea
leicester
pajang
sombong
menelusuri
##eluler
##ultasi
##apas
prag
kepuasan
thess
styl
kalijaga
##lava
polic
megap
##ungkung
##ocoran
andaman
kred
buch
milli
tutul
mono
efesus
ngc
twin
dawn
economic
supranatural
laphria
foll
gd
jake
sog
##nahan
##basi
##ск
##arutkan
beres
berbulan
##itta
##uld
##omulyo
pemula
orland
arta
khatib
male
rav
volta
##deeling
karangasem
rajo
edwards
franch
debit
lukisannya
berseberangan
powell
boulevard
mengevaluasi
fernandez
wurttemberg
kunjung
nice
wehr
seljuk
melod
aston
proper
dipancarkan
senam
polip
halal
terjalin
cole
ditump
strike
geos
banjarbaru
paripurna
injeksi
longgar
kyung
creative
paguyuban
ningrat
##say
dix
diinter
pray
akpol
sebidang
##jauh
##ingkuh
menghormat
ilusi
##master
telecom
pembat
berlantai
##loe
aksinya
musical
1808
diasumsikan
alep
jelata
environment
versailles
gai
kasa
##gm
##56
##wung
sewaan
##amina
pemda
melapor
bagasi
##oten
plta
mein
reorganisasi
teliti
update
kelompoknya
##entura
terserang
porno
kakawin
tikungan
fals
improv
konsulat
mercy
workshop
brigif
purwarupa
menunaikan
beirut
yehezkiel
donal
pha
##inos
##adis
menata
berantai
##itang
sekarat
pendarahan
atol
umm
return
urs
menemukannya
##ticus
lunar
living
masters
lipatan
diasuh
kenneth
heroes
inspeksi
kecurigaan
edi
hof
tsu
memikat
anand
meluncur
##odohan
kelola
prac
##impahan
soyu
palem
siber
kabul
fram
imlek
dicintai
psiko
##vez
khasnya
verifikasi
tanggul
mengeksekusi
communication
synth
bowl
bermusuhan
kebersamaan
dud
lomp
nons
zay
##pic
##erhan
memaparkan
pengulangan
direp
##obak
berjumpa
jalurnya
phant
##rone
torres
advokasi
frederik
mengasingkan
condong
beruntun
cindy
dihidangkan
menyepakati
##opuleran
lydia
paradigma
keberhasilannya
liechtenstein
420
oto
paw
vila
##aun
ina
##iklan
berbuah
##buwono
alwi
serapan
kardi
praw
ditargetkan
buleleng
siasat
hercul
##oksin
##ynes
##point
##otret
ketidakpu
akuntan
mgm
ditumbuhi
candra
wool
##nen
menopang
##illi
##budi
##itha
memodifikasi
##okkan
artif
sekilas
isterinya
1400
##oneura
sesko
rambu
lukman
kopassus
rece
viol
butler
4000
yudas
jaket
symph
chemical
eukari
satellite
niv
ronal
vig
zig
zebra
##eim
##yarkan
##abung
barok
sampo
##tanam
klenteng
pembekuan
##oux
##istrikan
ahm
jatah
melingkupi
deutsch
krabs
fauzi
vagina
probabilitas
sufragan
1st
dell
hb
##erian
diulang
penul
##andangan
##ampek
##ohor
belaka
ens
khitan
klad
berminat
stras
dicat
pizza
laptop
badung
mengakomodasi
mitok
register
platina
winners
roland
lipid
saif
hieronimus
jelek
##oteknologi
##fisika
realistis
aromatik
luftwaffe
andorra
fine
ulah
##teng
##matan
##jun
##utat
##oksi
seremoni
dikomp
amitab
endo
dinar
leone
diganggu
sars
sanitasi
osman
tops
astronaut
starbuck
nurh
keguruan
wave
1826
barack
vikaris
aqui
##ierz
microcion
aleppo
bungk
fag
gott
ome
##mine
##atwa
##atic
diukir
##ilap
bertara
anita
pembangun
##epankan
dires
komposit
##embar
kaleng
sco
lambert
dialih
##skaya
construc
aurora
gesekan
physic
serbaguna
official
challenge
mengeluh
##iformis
digagas
prambanan
konfusianisme
pertapaan
penggemarnya
pembatalan
aux
cium
ftv
rend
tungk
##luaskan
##yab
##ukuli
melej
pengirim
setting
##angkis
temui
namibia
manok
berduet
##igami
##ocal
emeri
simul
madison
menyelamatkannya
maxwell
1828
bakatnya
wolver
microcionidae
gub
hw
hist
diidentifikasikan
perasaannya
##inginkan
##tiva
alu
asupan
pertoko
appl
amelia
terbelah
pembelahan
terhadapnya
##ious
rocky
panggungnya
dame
1833
jln
cilegon
princeton
bocor
close
bertabrakan
tersenyum
dadi
fp
geg
ktt
nr
##oning
keim
mengorganisir
mengukuhkan
##ayo
menjabarkan
##ajima
##alita
##opong
##eco
khali
sesar
perjuangannya
pidatonya
ambro
nicea
braun
##akarida
a1
cey
ecc
##bot
##oeng
##95
##ulya
adip
##epi
##otida
muse
lauk
##ivers
ilyas
irawan
holly
vertebrata
priest
kompleksitas
tsan
802
tennis
pembuktian
##omerat
kagum
ditawari
iowa
mozambik
plankton
duryodana
hercules
bertaraf
emeritus
casa
gsm
vv
##rach
##lag
##hos
##ango
diut
##amid
##emonstr
##roh
pematang
##ambungkan
stt
##lave
menghendaki
abe
residu
kolesterol
reput
heat
relativitas
rahwana
siput
sigism
homer
umurnya
menyusut
memperbesar
speedway
colo
hajar
tina
##alk
##tula
20th
##ayam
penginta
1816
bruto
berdomis
albums
rokan
256
chrisye
##esmana
rajawali
laboratory
falk
granit
clear
mohammed
saingannya
mengimplementasikan
ringkasan
pentakosta
ketidakpastian
deda
hadap
kalam
tis
##aaf
kebalikan
terisi
dike
##uca
nomaden
peristir
##quin
nassau
1832
const
doraemon
separatis
pertokoan
##uo
##ues
##aging
##odern
plac
dideritanya
interm
bertobat
ellis
suppor
glass
dialokasikan
kodrat
rachman
bourbon
whitney
diuraikan
cock
ea
nino
pesi
toto
kea
kebay
peradangan
penentangan
dipelopori
mani
entr
kebocoran
##anie
##bukukan
giusep
disita
bercorak
sonny
##tabel
hardcore
perempatfinal
berargumen
pengintaian
cust
rampung
##rent
##alum
##edah
marzuki
graha
restu
kurator
penghujan
bentukan
##timore
fergus
dianalisis
knot
jasmani
ridwan
kromium
didaerah
pendengaran
rodriguez
starbucks
farah
ramb
stem
##tia
##itu
##banggakan
##otos
##etagne
amonium
utilitas
shig
angkatnya
dirilisnya
ahl
kejayaannya
keperawatan
325
celebr
pewayangan
pipih
punggungnya
##inness
aparatur
konglomerat
soyuz
bash
dash
fif
fenisia
gangga
gates
lasi
nico
pung
rop
##nings
##fort
una
aneksasi
perth
##aransemen
parv
parthia
bretagne
##ucuk
perseter
selesainya
kilat
some
underground
puteranya
ave
jans
olig
##shi
##jam
##44
##amura
##elerasi
##ekatnya
##andeng
kepopuleran
##ries
isomer
belalang
berspek
uttar
plum
terpelajar
##teen
impresi
ampel
muncullah
kakashi
montana
yudisial
creek
furni
##klub
cliff
hermione
orlando
giuseppe
lund
tolong
##oel
##onta
##uska
##orh
karak
1813
perkenalan
bengawan
naval
supremasi
armor
gior
tidore
chair
spekt
yehuwa
membagikan
cornell
ritme
diimplementasikan
peristirahatan
nine
sajian
tkr
wings
dikandung
merampas
ani
##egosiasi
##icana
sabu
disingkirkan
belasan
khay
taka
krajan
minis
##burger
medic
ironis
flow
tonga
konstituensi
##poor
homogen
bangsal
ericsson
setiawan
hunian
alauddin
terestrial
menghormatinya
dedaunan
cadang
eut
lesmana
nero
stic
uta
##pang
diatasi
##uning
##usu
##usin
sepat
seth
pear
sales
skill
sull
perkakas
report
nyawanya
mutakhir
raba
christie
##schaft
##ushima
##ould
retro
fairy
hugues
simfoni
jai
pind
wii
æthel
##rahan
##sten
##cm
##onne
##aper
##oly
indosat
##dock
chit
berkend
membas
##ugar
frei
##yatt
baltimore
info
nair
keseluruh
taruman
georgi
lewi
greenwich
1789
hierog
bachelor
squarep
nederlandsch
callyspongia
manokwari
both
pamp
##78
kemiliter
projek
##antasi
disalurkan
stella
ching
##perimen
templ
##ropus
membalik
korosi
dicegah
latih
mojo
astrologi
pamf
quick
sayapnya
pengelompokan
1824
spektak
direktori
vasal
licin
ezra
kebangsawanan
cron
doy
nut
tjah
wto
##rand
pertambahan
##onale
belok
senen
manipulasi
remote
torsi
diperolehnya
##film
patriotik
cikampek
rabbi
seperangkat
todd
kapolri
halichondria
meledakkan
menjauhi
rawat
sungk
yank
##zed
memutus
##imuti
oris
induksi
##anjuk
pendarat
agamanya
kecanduan
berbohong
##empit
shor
##igne
rumahan
kekeluar
drac
penghentian
terlaksana
activ
kultiv
perhentian
djoko
kebangkr
elean
mendorongnya
pdip
ruby
migas
perumusan
##odendoryx
gigih
zuba
xvii
paradise
shadow
before
keprihatinan
lissodendoryx
etr
jos
##fly
berjualan
alai
##endorf
resour
##hav
163
deposit
bayar
based
helic
bungo
earn
nicola
resepsi
antropolog
mesiu
imajinasi
cili
muri
ngr
##sara
##atak
##seong
asahan
arbit
ateis
trit
bremen
shef
eliminasi
bureau
##cky
tegalan
memperlambat
dalil
chlorophorus
ketidakpuasan
qad
sani
##ebi
sebaik
jug
##otti
##acuni
##mans
police
kho
##angsanya
##hoff
menikahkan
scud
praktek
##ypta
waspada
simpanan
bobo
sragen
electron
trisakti
dikubur
process
officer
didatangi
##unyikan
berlibur
dirgantara
kazimierz
keikuts
berspekulasi
gangs
payah
panda
vena
##tina
##tosa
##lesi
##ket
menantunya
perangkap
tromb
membid
sanghyang
dibicarakan
memperhitungkan
cermat
##ycar
dato
terciptanya
pakuan
crim
dibukanya
##schild
tsuk
tertuang
##kinson
multip
retor
bibinya
funk
hera
##apel
melun
lebaran
##kavasi
##lio
##aksis
neop
lapor
sepakbola
##quet
baseball
pengajuan
northern
mulutnya
concord
theodor
ensiklik
bontang
baldwin
lae
leks
oost
##eris
##adwal
belantara
tiff
mard
hardy
##toch
bisma
elena
magetan
riyad
carp
##andingi
yorkshire
pergolakan
sirih
menyapu
cryp
plutonium
sekuens
pyotr
zap
##dm
##eed
##atz
diva
ditukar
berair
merendahkan
ananda
##udikan
##ebol
aksh
##angkatkan
stir
putin
palangka
kane
celcius
fasisme
##falz
uhf
merefleksikan
mitokondria
wiki
segan
##lec
##andikan
##abas
amm
disuarakan
peletakan
##nier
diperebutkan
string
##eyan
pulitzer
275
rhyth
##ampingkan
jules
##echia
1930an
ciptaannya
zoologi
merauke
pertapa
achi
gant
hiro
jip
junc
wulan
##iat
##mik
##gayo
penuntut
diproklam
##etabek
saba
check
pelaf
meso
digunakannya
read
##orial
berlomba
buy
koln
tuba
month
##essy
menjelma
regina
nganjuk
compet
bonn
orion
springs
bintan
bergaul
##elektrik
revolution
ranking
case
eri
gwang
ionik
sihan
yordan
##ων
##enak
yangtze
##italisasi
##osot
meleg
karpet
komn
shih
sanak
hour
mcdonald
mikrob
jabod
kontrasepsi
mujah
perantauan
wheel
supernova
aquitaine
tsanawiyah
lala
matan
rf
##68
##elyn
kearah
bertr
tertekan
pemicu
##odel
menyamai
prangko
##otom
kerk
kecakapan
##hanan
halo
presidium
lei
##quist
uangnya
##athon
abbey
change
pyong
indianapolis
jefferson
gigitan
##aparte
menggagalkan
kebangkrutan
b2
echin
torn
yuli
##rung
##oed
##yasa
##kai
##wen
##witz
##zam
##asnya
##ampanye
karm
akira
konkret
kesucian
terhambat
satur
kano
terbentuklah
bayinya
perhatikan
supermarket
siklon
philos
ekstraksi
rapuh
dhabi
jemaah
mauritius
memproses
taoisme
chevrolet
pemesanan
mimpinya
penularan
jengk
peka
rudi
tond
menst
##iros
penampungan
penambang
##anjar
kotabaru
chik
chern
teut
emmanuel
bernegosiasi
satir
guinness
sark
##tionary
walik
ngarai
rocket
bonjol
variety
pendapatnya
portland
basketball
mehmed
phillips
kemandirian
penetrasi
trayek
kekeluargaan
eleanor
ff
gosp
node
ojek
##ahn
seong
##bup
##oratif
##ingrad
##oklas
asmat
penguat
mendokumentasikan
kecemasan
trend
umbul
ext
##ashtra
mengajari
mandal
zionis
dipecahkan
havana
konklaf
voyager
spektroskop
susun
##yati
##enangi
##andaran
melody
karan
barus
statu
britan
didokumentasikan
##terium
301
flower
mitr
topologi
konsepsi
pipi
hopkins
kartika
##nasium
cempaka
afdeling
terdesak
phantom
perseteruan
sihanouk
aya
db
mph
##atos
##itya
##apet
##otin
kedepan
##mash
##ucle
##istry
kantornya
gautama
perseorangan
sabda
pacitan
identitasnya
pertiwi
fujiwara
sesampainya
mengedepankan
hast
##wh
dio
##aso
inver
##engetahuan
##irmasi
##irejo
##ulih
mement
mengartikan
##entangkan
berkar
##impung
##igin
##oween
upgrade
sanch
##uluskan
kepadamu
##uwen
1821
##spot
wibowo
tjok
squarepants
nadi
paha
sila
##cea
##kohol
##feksi
##engger
arr
##intir
third
mencampur
sister
gerald
maud
terkecuali
terpenuhi
##umph
tersukses
simetri
001
anjungan
kirana
maine
protocol
berkesempatan
berdomisili
sullivan
orisinal
dyah
nog
pni
rakit
wakan
##vat
203
pemurnian
progo
tio
wakaf
persatu
##utani
bermitra
angklung
metan
flat
meliput
disegani
##schap
sidney
poker
1809
miranda
rapid
wiraswasta
statistika
kovalen
diferensial
setimnya
iod
ktp
yek
zirah
##yna
##ilit
adobe
##aign
##seum
bahw
ches
membingungkan
haruka
##empur
kuis
##ompa
milimeter
supri
noer
pojok
kabisat
221
##aniaya
priangan
##entius
rajanya
promachus
lumpuh
without
dipanen
dipadukan
dehid
pelafalan
asih
cg
cz
fid
hyo
jir
##له
diburu
memor
##tional
##andalan
kelenteng
apung
maori
bandit
##eopsis
burk
pencat
heath
faith
denny
letter
henryk
ambigu
kegemb
nakal
origenes
berkecimpung
galileo
latif
lower
ned
##ged
##yol
##jaran
menobatkan
menukar
pengaman
arian
##angkatannya
##ropi
sunga
geodia
transm
petarung
supp
terstruktur
joel
joao
##rates
tirol
humas
##ledon
cikarang
sterling
becak
diberitakan
nhk
pengembalian
terminologi
penebangan
tertembak
langkat
mamm
sangkar
##alak
##umer
##eduksi
kelakuan
terdampar
penyebar
##ingankan
##yard
resistensi
##occus
ono
kawasaki
##feria
cath
238
episod
etn
##nox
basri
kadet
ajarannya
penganug
naturalis
fullbottle
mengagumi
jorge
pietro
imperialisme
journey
guci
muat
qual
tangkap
##danya
##gir
##jaj
##fic
diob
seand
##etnis
isbn
them
disangka
angels
partisan
ketek
dilukis
1818
penyesalan
##lier
harper
maknanya
rox
boa
moralitas
teper
pepaya
horse
jaguar
##tarikh
##ismus
wildcard
##olitikum
agraria
kegembiraan
benci
dg
duanya
eter
huan
masif
mengecil
merosot
sepengetahuan
angi
serum
##entari
semest
stor
153
menggemb
phineas
##plan
diperkenankan
tauh
aktivasi
disitu
moscow
terbitnya
tape
judith
bradley
dievakuasi
doh
jyp
retak
##tida
##js
diisolasi
##amas
tertera
memon
melon
##jauhan
suj
willy
terdalam
1817
resonansi
restrukturisasi
forever
alamnya
##marck
dolok
jagat
rilisnya
fotosintesis
yunnan
wells
gianyar
lajos
uraian
pittsburgh
seandainya
hanja
mba
mith
wimb
xun
##bas
##aminan
bertrans
bertarikh
pengap
##berra
apot
amnes
mendar
chef
suta
korn
digambar
bejana
beyon
penjabat
##ospha
gairah
##mour
beralkohol
everton
collection
beyonce
950
cros
larang
##qin
##ukus
anch
##trasi
##abilis
##ubi
akkad
lalunya
kelasnya
kuc
presisi
kolonisasi
##egie
operation
antarklub
memasukan
##icket
purana
taring
bonaparte
##hero
1801
freud
geme
penangkaran
jakob
lexus
dideklarasikan
persembunyian
jabodetabek
tjo
##angalia
berant
##imiyah
##awasan
##ihe
spy
bersambung
##ujuran
takluk
acid
singer
pemberani
radial
tais
objektif
substitusi
coca
casting
1795
gundukan
alberto
maximilian
lombardia
spektakuler
hyl
kyu
pepat
zal
##uasi
##eza
##woyo
##anahan
##ikatif
##buy
##omar
merambat
akhirat
161
acaranya
##gereja
percy
regular
byz
menganugerahkan
bijinya
angelo
cebu
serpihan
terperinci
oxyopidae
kemiliteran
dale
kfc
lobi
miri
##cana
##islav
pengebor
setebal
disembah
berkuliah
dirakit
pembimbing
310
beraturan
lele
cuci
canberra
##wegen
bodhis
##omorpha
nichol
disekitarnya
jobs
menggalang
swapraja
sosis
sarapan
##rud
##nica
##got
##aho
tertanam
##rosa
ketik
enkripsi
ofensif
afro
monmouth
215
sukam
mesinnya
mewariskan
winner
navig
777
ignatius
karnaval
membelot
sheffield
kwan
nata
uigh
wita
##bannya
##gil
##otipe
##ρα
beraksi
##uruk
sph
ambul
##chim
##ilius
berkemah
dirusak
penyewa
##esty
##embelih
minatnya
neal
skin
rook
been
##incar
tampuk
pergelangan
blokade
bomber
parahyangan
##chenko
greatest
olym
memaksakan
koreografer
skeptis
fluorida
tuberkul
bergelombang
berterima
yustinianus
kebayoran
ein
jaran
miki
momo
reng
ws
##tec
##enun
keresidenan
##chat
berkencan
permain
depdik
leader
nepenthes
recording
june
trainee
konsolidasi
mengimpor
bereksperimen
jodoh
pyongyang
640
brav
pmi
susi
##canya
##four
##istin
##ikul
angsur
##ibal
berkampanye
##aniyah
berlandaskan
perkalian
kendari
hyb
mccar
rhaph
melewatkan
##ittata
sorga
gmbh
ultraman
phillip
ventilasi
dresden
bakso
##erhanakan
cash
hamb
kc
rish
##aut
##erc
##alli
menimba
##iagaan
antr
pertengk
subuh
ditata
berku
1819
graph
teungku
salzburg
push
pusp
cartoon
kadir
kwee
##aragua
hegemoni
penginjilan
maharashtra
democrat
avengers
uighur
720
cay
cly
ganja
noda
##dha
##cut
##ين
sega
terangan
##aray
##irama
##ims
sepulang
##etia
208
pemukul
##awannya
arie
##ippus
##gunung
disintesis
bersim
past
sangha
didiagnosis
elastis
##hiz
burgun
##ukau
hermes
##standing
markah
prinsipnya
pewarn
##zalez
cardiff
republikan
pnb
selebritas
carnegie
perfect
alquran
rhythm
frig
##ikai
berem
bergi
adele
kemal
kelar
semalam
##hirup
atasan
shinee
fregat
berlainan
perlintasan
##ediasi
hoon
busuk
deriv
arsyad
weber
desainnya
gandar
bottom
beverly
tepercaya
semestinya
daha
goyang
huss
lara
lajur
ode
tash
yul
##raman
##42
inhib
##itat
##imob
##upas
##lehem
##ended
##ahannya
things
ektop
ikuti
jiwanya
pesawatnya
monkey
bez
##bane
heid
heidel
scr
panasonic
osiris
nikaragua
mengejek
perekaman
pembelaan
sekuelnya
cabe
gondang
penguburan
sjahrir
##tabilkan
seremonial
kultivar
ragi
siv
##hah
##hucu
##cript
##ᅡᆫ
territ
mengimbangi
kerdil
barangkali
stade
tanaka
##hantui
plagi
kuching
kekayaannya
nefer
irwan
goal
taek
hades
rise
henan
moss
aeronaut
##ismatik
doktoral
memaksimalkan
pranala
stimulus
pamflet
bast
keng
kolo
mina
nac
pw
sintang
##erman
dioc
##ikk
##ural
sebagi
##beri
alv
pasai
##unanan
abim
bulungan
didis
##ineal
kamil
##icks
myx
proyektil
galur
regent
##ritis
midd
dipertandingkan
popularitasnya
cicit
nmb
auditorium
##ofisika
partisipan
own
puji
zepp
##water
##untuhkan
##aries
##ihu
spp
harmon
cerob
pantura
kriket
##bion
kauman
kosmos
siku
kiamat
##letti
parigi
promotor
menembaki
banyu
##anthus
survival
selebar
siaga
etienne
anastasia
germain
commerce
berkonsultasi
kentucky
ao
less
##uin
##rutan
##88
##ilayah
ketr
##umar
menjulang
##icius
##acaf
##jagaan
belukar
kedik
berkor
##ectus
sendok
shiv
##toechus
kato
benev
binjai
profit
##jojo
logat
##atarb
outstanding
##itsune
menginfeksi
perbuatannya
fikih
telegram
didiami
berbelok
pesiar
penganugerahan
pertengkaran
440
sami
##vision
##atta
seok
mening
##tail
##araj
##otar
bieber
##ework
sejatinya
##lau
bras
bismarck
##grup
perkap
batangnya
holstein
##cuit
elev
byr
trinitas
menjualnya
geometris
punjabi
turboprop
lcd
penebusan
penginjil
kartasura
mementingkan
eta
hou
polong
tegang
##rons
##yev
##ام
peroksida
dipus
akomodasi
sebatang
distor
halida
deuter
shak
sholat
andalas
lautnya
petit
door
brother
370
ashley
mekong
bertapa
myrmara
numerik
disederhanakan
berkendara
myrmarachne
glam
putu
pekat
saku
tori
tato
##uba
##iwa
##urance
meranti
##ongkan
bahn
pengumpul
##ipur
pendaki
these
harbour
grid
empu
gelanggang
pione
coup
schles
koen
relations
letjen
tonj
memanaskan
notting
tidung
histori
dijalani
lehernya
unicode
ghaz
ishaq
hl
janj
lingg
np
wais
##goth
##mb
tertib
##imak
timothy
kaiser
##balikannya
##uction
lahat
pencetakan
budayawan
ukir
antioks
fiat
verbal
##letta
##link
menggambarkannya
rosario
lisbon
1829
menguap
concacaf
gonzalez
sirkus
olympi
heidelberg
cew
lv
nib
ufo
xue
##yph
perenang
memalukan
mengitari
bahasanya
dipajang
isl
##angkas
marta
soe
klungkung
##ucci
monum
estr
konfirmasi
tonkin
penakluk
agromyza
terselesaikan
seleukia
drainase
nmb48
dhani
##err
##arina
intu
pemug
pengikat
pasaman
berbaring
##life
bulla
riil
irc
dijamin
##istri
##inski
kacangan
##dowoso
mongon
talenta
cemas
menyusup
mengembara
ultravi
factory
ustadz
poseidon
kemauan
memilki
pencatatan
pewarnaan
lembang
narap
pkt
perombakan
mengungg
another
##uhu
##eport
##icomyia
apg
tie
marwan
persingg
reog
waru
takeda
##bumikan
austral
kanto
hao
cyrt
loop
##vial
ketidakse
##luor
pseudo
cinemas
jesse
nukleus
klaus
cowok
meredam
mahasiswi
fog
vr
##tong
##gat
##aninya
##arua
##usinya
penat
kemahara
itupun
akuarium
berbekal
berdebat
kuantan
##alisir
sinus
janet
kawi
coupe
2500
jure
perpajakan
tembus
endang
bondowoso
pemanah
pascal
girlband
implikasi
reputasinya
wimbledon
##ruddin
##leng
##mut
##ahir
##taan
##umenis
##idar
memungkin
penjagaan
menyangka
berkem
fritz
andhra
inggrisnya
171
geologis
patuh
##hood
glut
mengkons
rahayu
charl
hatch
banua
##tilasi
penyelund
wahai
surgawi
panjalu
ditembakkan
bg
bem
fs
rangs
##vestasi
##alih
##arikannya
##omyc
kemb
##anjiri
##ancaran
ketenangan
##enalkannya
dilemparkan
budiman
metall
support
madh
divonis
helai
tabungan
quinn
##view
narkotika
##artheid
infinity
fighter
antoine
berunding
kalinyamat
military
ceylon
##atarbelakangi
aero
baka
cyl
dunc
dyn
dort
kia
kuto
lg
ryo
zodi
##loh
dante
##ilde
##user
peramban
##ulangkan
inipun
mengom
##sign
##ampir
pengga
keri
musnah
stel
planc
klik
terkalahkan
katnis
jalil
305
esok
hitung
##esset
hipok
hadirnya
banu
highway
fuad
menginter
privasi
bordeaux
paviliun
smartphone
##oprotein
kekecewaan
tonjolan
kemaharajaan
flet
hull
nv
oka
rou
vesti
##ursor
adal
##olulu
##tig
##edel
konink
thank
drake
sinhala
lemon
dictionary
late
##orax
##tainer
mcdon
nikita
citro
kedatangannya
jadilah
menurunnya
nadia
rugby
pommern
feminisme
jebakan
menyesal
##antulkan
metamorf
chechnya
omega
sigismund
antioksidan
olaf
uea
##beck
##sek
##orot
sepihak
disun
parat
trap
abah
poll
persel
persinyalan
moder
scrip
waligereja
preferensi
kebenarannya
renaissance
shao
gallery
wedana
windsor
anarkisme
feminin
nieuw
shandong
pemugaran
cpu
fusc
kt
##57
##jer
##47
dibangkitkan
##ament
##iklin
thing
dirumah
##erst
utomo
kekhanan
liong
neoc
diberkati
dicalonkan
kasunanan
mulya
hampa
masjidil
moro
tumbuhnya
lengkung
watt
kunjungannya
akhlak
##arasit
vegetarian
ferguson
spektroskopi
bann
dham
jib
mou
tpi
##uve
##ease
##ikis
spears
selaput
kemend
##uben
mendedikasikan
ate
ketel
dideteksi
demetri
minamoto
kehi
##tex
##ports
schro
##trium
opium
rising
playboy
pippin
nasabah
berkepala
kuadrat
tuberkulosis
kediktator
nong
ppi
siau
vichy
##injauan
berpat
##utnya
##patri
disembunyikan
belia
suap
berkabung
geron
##asihi
##ontaminasi
kalor
151
patahan
petr
coach
being
menggantinya
##utamaan
##fav
gael
bonif
perekam
taliban
japanese
dikenai
dutch
ricardo
ketidakstabilan
watanabe
saturday
hybrid
ultraviolet
fh
hath
rice
verti
zach
zion
##200
##ikel
##andian
##rae
think
ekumenis
asterisma
##unde
salt
strand
##rill
repor
blake
nomin
sukhoi
herbal
##inoe
finance
lucius
hadirin
1804
1803
panci
liberalisme
1822
##bayashi
thorell
seantero
siddhar
statuta
tapa
##ax
##map
keynes
memudar
kemih
apotek
labuan
##indai
trick
kapitan
once
mengajaknya
kakap
tetrag
narator
knesset
soekarnop
1790
teorinya
kediamannya
vaksinasi
kuartal
morrison
dolichopeza
policy
emi
lrt
p2
##bisan
##macht
##wani
diup
##inho
##akusuma
keisl
##omac
##berto
##isipl
##antika
diket
disebar
kaliw
kham
cerdik
frase
dru
rias
porsel
penjarahan
mendukungnya
pembukaannya
metaf
nafas
mengkhawatirkan
geoffrey
herodotos
hieroglif
narapidana
430
dot
jef
##uatu
dibum
##umasan
##alahannya
aldo
##anjur
keramaian
gerobak
requ
penghakiman
depot
sato
roch
##illian
joey
garasi
compag
complex
donasi
width
kehadirannya
##scre
pereaksi
manufac
pythagoras
topsent
cogn
wendy
##inh
##emur
mensp
beregu
##oral
merob
penel
##adien
##rique
titus
abkha
androm
bertet
oki
elf
upt
upi
kmt
menggeser
muria
excel
nyala
frances
impul
aqua
##world
rugbi
supernatural
pocong
gospel
pengeboran
mongondow
aal
cultural
nou
raih
##guk
##vre
##eres
termu
meringankan
##lev
pengarahan
sekur
apbd
##acio
diderita
emped
##mail
##istribusi
root
214
conrad
##eneur
nagara
kyle
fitnah
jabar
flavius
pembaptisan
ronaldo
##yoshi
terencana
##olev
antas
penahan
halangan
meyer
berduri
##ocokan
dry
##ijo
blind
dianggapnya
olimp
fisiknya
hanoi
bapaknya
camera
menangkapnya
wonosari
6000
ditakuti
koboi
kosmologi
mindanao
menelepon
tiberius
warrior
##ongsong
keputihan
terfokus
tauhid
gilang
rara
use
بن
##hab
##along
mengadu
filant
##acea
trent
makabe
teatrik
andalus
##ensch
monoksida
kamakura
##tasinya
masalahnya
webber
table
sappor
##tulasi
castel
jayakarta
karboks
##benua
ringkas
simpanse
mabes
mushola
kediktatoran
duss
hunan
noth
vish
##hak
##sberg
ketuhan
terawat
pemec
selo
bahtera
ares
kesederhanaan
diluar
berbobot
kapital
memphis
terhalang
koreksi
actress
depo
leia
paolo
samantha
kejujuran
##arktik
228
busa
koppen
kiasan
bonto
horror
mulailah
sutera
cakraw
ecole
bassis
rhodes
kahyangan
brisbane
ketaatan
stmik
pemusnahan
pengejaran
##engganu
legitimasi
termuat
dahan
dja
m3
manggung
tess
toro
##hati
##swana
##ᅡᆼ
diemb
##gao
terber
##eken
209
keled
masoret
dikred
agaknya
ditaruh
kalori
minami
sunat
skiz
date
bidangnya
patty
##tsch
keseharian
why
sigma
stevens
1799
honolulu
cemara
wolfgang
jiangsu
blair
korespondensi
cagli
katekismus
hymenoptera
menuntun
eminem
koninkli
mif
tonton
##rai
##spur
##yst
##ρι
menamainya
##irilah
unil
##etar
genta
bermutu
turin
presbit
dirikan
transil
swas
menggugat
mulawarman
industrialisasi
cathol
evil
##wibawa
limf
gurih
retina
falsa
hearts
luigi
terhindar
wehrmacht
aek
jm
lompat
##lanjut
##kata
##65
terob
##umoto
uniknya
menggigit
##osting
sekresi
kepindahan
amos
chond
biseksual
gron
reading
interface
colors
berjadwal
insentif
##ensia
kolon
ull
idrus
metz
lapar
bincang
taizong
prasangka
damon
beralasan
2023
mazda
woody
a320
actors
penyaluran
xavier
artemis
riyadh
fletcher
jangkar
kuj
kyo
rr
tito
##kot
keep
##usha
indoch
orangnya
display
peleton
##tori
173
##oyong
later
murad
gloria
scan
corona
tonight
solonya
##khos
historia
detektor
fransiskan
kependekan
kesalahannya
kirgizstan
coffee
reynolds
permainannya
sapporo
tf
##mawati
##peng
##ор
##tulan
##ulannya
mengusahakan
anhid
##egen
menghabisi
##uguhkan
terbebas
kebo
buwono
ulung
geza
guide
sword
care
portabel
schne
##endaharaan
kompeten
brooke
##bondo
nasdem
bilamana
outlet
nobita
bengkalis
cheung
inisial
##color
mengecewakan
nabati
amazing
savoia
pemodelan
perselingk
mangsanya
nangka
##aa
##fred
##qq
##aren
##ahar
initi
##bug
##egger
apartheid
kepingan
##intosh
chol
luarnya
kunt
denver
memperkaya
engel
situbondo
##rush
devosi
1807
1823
albat
kpud
menonjolkan
rowling
portofolio
thamrin
mencurahkan
frontier
ciuman
transilvania
kko
mung
tabi
wend
##come
##jarakan
##pkan
##parah
##atul
seas
##akinya
merry
karls
mencuat
realisasi
siemens
kurus
##onden
unduhan
hija
perhutani
##ential
penyelidik
legislasi
visigoth
sundance
kronologis
border
kontinental
disematkan
meriwayatkan
xiongnu
aleksandr
vehicle
aes
gubahan
ika
jw
qua
wig
zem
##dayakan
##barang
##brak
##erek
##emit
peninjauan
##udia
pemalu
##ainkannya
bif
stol
maru
manas
##eries
##erium
bernapas
jie
bolaang
##achim
##ejiang
reklamasi
kejar
daytona
richter
tebusan
december
##uyt
arjun
wolfram
lhok
prekursor
mengarungi
benevento
cawan
sno
wc
##yuh
seukuran
##ikil
ansh
allan
##oden
musume
trac
buletin
khil
usang
peer
salad
upon
##ciuman
dicer
dicanangkan
mengaca
tox
glory
cathar
craw
balita
walid
rosen
rhin
dianeksasi
kewira
pengeringan
janganlah
andrews
hubei
congress
xylo
mengisyaratkan
abnormal
fiorentina
ketuhanan
silih
wade
##eley
terjauh
memotret
uncial
mengger
207
pemut
pengenal
ario
berser
maraton
truman
animator
emper
terlupakan
guam
gubuk
264
dahi
##menya
langgan
vienna
peptida
##ught
dorothy
1793
keahliannya
hikmat
sherman
dikutuk
tertingginya
ntb
paradoks
pengkhianat
rothschild
mentransfer
hepburn
destiny
brabant
katniss
mcdonnell
aul
dard
iata
natas
riley
##feng
##erle
dikan
##adew
menanti
##ility
##ariyah
##uml
##imas
filistin
thre
disertifikasi
keten
membeku
umno
shri
fres
##icht
mengabulkan
##bukkan
kamarnya
290
volt
helenistik
sembunyi
##eldorf
toleran
horus
ekstrim
gulma
gejolak
570
tasaw
kinetik
petualang
chennai
saigon
heroik
zealand
stenopogon
sanchez
rangsangan
dortmund
630
gc
lur
##bana
##ør
##idol
memungut
selai
indul
##ohongan
##ropolis
ditopang
ditenggelamkan
cuka
##incangan
265
zhejiang
very
masker
panca
midnight
kubus
broadcast
kayunya
lincah
penyuluhan
encyclopedia
epilepsi
jajanan
##otarsus
memungkinkannya
610
geop
jeon
##dorf
##tama
##fre
##erling
keatas
terangkat
perwal
perompak
##imbol
##ekik
meramalkan
##ampakan
##riet
agent
diserah
suez
kuas
terjal
rech
##estetik
jerome
ditul
memenjarakan
yogya
007
akselerasi
##indaklanjut
casino
gatal
##ything
##ungsian
warriors
nottingham
indochina
540
gombong
kund
koko
nfl
qf
rima
yoshi
##yit
##pre
##ич
##aron
inkarnasi
mengilhami
##opr
kelihatannya
tril
petrol
pangandaran
##rosis
release
fiqih
ferb
twice
lentera
durga
proteksi
kesukses
jenny
atapnya
easy
##essive
lonjong
strasbourg
achiev
zeppelin
520
jt
##rea
##iruan
##idato
menguat
##okin
alma
dikor
aguil
##ible
kaos
berdisk
transpl
onc
kenik
kabir
222
hood
duren
ekstras
ruben
hawk
humani
rsud
taufik
islands
geser
konstruktor
jala
kiki
lian
raman
sira
wam
##reng
##lora
##fast
##tage
##uros
mengidentifikasikan
##udh
indus
prisma
kondom
generik
dilacak
menghasut
buluh
shr
bailey
persek
##afa
afdeeling
menggubah
menikahinya
silo
hotspur
nurdin
##ween
jenius
1792
reinkarnasi
against
berbelanja
mengupayakan
berinvestasi
staatss
suleiman
wanderers
kewirausahaan
berdiskusi
citar
ceph
kog
salis
##zem
##ар
##alinan
##inalis
inki
##idius
##osensius
melel
alik
##icent
dipisah
##antunkan
##ives
haru
bulunya
sumsum
berlakunya
tuo
jitu
terkenalnya
255
erit
##askular
injili
mirza
460
francais
machimus
mengasuh
jolie
mahathir
terapung
ambulans
dipusatkan
duncan
compagnie
inkigayo
werner
zon
##zat
##zol
dios
mengisolasi
##atana
##itage
mardi
penyewaan
berpidato
katal
present
seringnya
sumbernya
pulsa
pool
conv
##ffy
##zoikum
660
pemeriksa
tripoli
chapter
rawas
aquinas
treat
mengagumkan
rizky
kesibukan
korsika
fug
fisip
judi
rond
ubin
vc
yui
##nic
##wide
berim
melangsungkan
aph
##otori
keruk
mantap
menyeimbangkan
baut
ushul
siar
pembenaran
kaledonia
milton
benin
geun
perbendaharaan
dagangan
recep
pondasi
hayam
menyayangi
nicole
dharmas
kazan
istiq
manifesto
combat
cewek
bkr
euf
jeng
kincir
ventura
##stone
##kim
##fun
menebus
terengganu
##active
##antah
dikec
##ohi
saatnya
asterisme
cerat
jambul
carrier
epif
kantin
raz
superhero
dayeuh
##marine
donggala
##rodit
ridho
heterosek
bujang
synd
iqbal
ilmunya
teriakan
narasumber
##ofrenia
pepatah
cakrawala
cres
dab
##yuki
##case
##tuturkan
ane
pemisah
##isiensi
##angkit
disandang
marathi
tram
membungk
menghalau
brew
soeg
berdaun
kuru
position
elips
bless
mengaji
##hoe
disebuah
gaudi
jadikan
situlah
quint
1827
##self
pantang
mengambang
eryth
investment
ektoparasit
staatsspoor
b1
rans
yoko
zw
##tuur
##usei
marri
ketela
##nius
malapet
ilmiahnya
inside
krisday
paduka
luang
##coin
rasisme
better
rosales
canal
waters
otoriter
political
mainz
blueto
##games
klein
safari
messenger
kiblat
reformis
##ocephala
lompatan
dusseldorf
dikreditkan
malapetaka
krisdayanti
babat
lm
landing
muc
##uis
##urr
menguc
tha
suma
bermag
madame
lamar
sesak
helene
assemb
##urnikan
tanjungpura
richmond
southampton
pidie
vega
dinikahkan
koeswoyo
luput
pertiga
signal
coelospha
follow
earnhardt
akkadia
skizofrenia
bluetooth
aura
oven
##amang
##umand
##ambe
theo
sanga
puspa
ely
carm
sosialnya
mikrop
##zhong
konveksi
ketidakadilan
diwilayah
dipertunjukkan
lupus
mufti
itachi
khazanah
kenikmatan
fey
ioc
lih
nucle
rik
sastro
##ffer
diintegrasikan
##amati
##adafi
peril
##omorf
##andera
indrap
praj
kerikil
kontur
desas
##onsori
kebohongan
kalsel
geographic
majlis
eduard
newman
faktanya
efrat
227
kuatnya
weiss
bhay
##truksikan
bangkalan
montg
maryam
botswana
safety
menyuruhnya
dogma
guadal
meminjamkannya
dikebumikan
electronics
##indaklanjuti
eve
fasa
qud
sati
##lit
##bok
##gua
bertipe
berziarah
##orok
selagi
melindung
apbn
direc
plt
shimin
berpuasa
liqu
berlubang
beni
eduar
afi
##ophon
menggandeng
##ombe
primetime
mengirimnya
mariana
defisit
##here
##ekuensinya
mirror
##tujuinya
jimat
pelayanannya
mozart
sinematografer
tiffany
f3
nup
rian
vie
worm
##matik
##fire
##ст
diilhami
##tuasi
##ultura
##ekasan
anu
analogi
##teru
selayar
printer
kecaman
pastinya
memblokir
pelag
##obilisasi
mengherankan
maestro
memperbaharui
##alism
irfan
bayer
rambutan
##ezer
sikka
darahnya
hipn
gabus
tikar
1802
prostitusi
pkk
rashid
zodiak
teatrikal
galis
lights
oet
rebus
tender
till
togo
vinci
##fas
##akwah
##eshi
##isnya
berep
tereks
unis
merch
##sig
##ayati
##abh
pertobatan
mendidih
daend
pask
maril
trakia
soedar
palung
##eston
menuruti
saty
##entuhan
heru
percampuran
##harma
menuangkan
wellington
menyusui
##trechus
pixar
navarra
melejit
catholic
xylotrechus
dju
gotik
nila
vy
##fel
##adona
##ondo
memetakan
##utz
polres
brug
plug
dear
matsu
kual
##estes
eksotis
sats
pied
too
##essel
elektrolit
natalie
circ
dimasukan
boron
1805
gulden
pancaran
cdma
midway
evolusioner
technical
mencurigai
cangkir
##emonstrasikan
hwan
zoo
##mn
##yeon
##ekuk
meren
##epa
dipol
##anyon
distilasi
marathon
dilem
mantri
didih
sumbar
kret
##usion
1100
dibayarkan
lateral
##bulus
216
##roma
taira
otentik
doel
315
vereen
pamandanya
bosan
berkebun
menghindar
mengekspor
##enyapkan
heming
fisiologis
linier
segelintir
penghibur
anchor
arok
##bakh
##jipto
menuk
##itive
##bac
alap
karsin
preman
files
sembar
##chain
dilafalkan
salahuddin
##eves
shiz
interna
sumo
kaldu
##ucuti
imm
burns
hindus
wish
astrid
tomor
marion
gurita
sejenisnya
densitas
retorika
kesuksesannya
icao
mumi
xer
##som
##itsch
##ulo
memaaf
##oleransi
anci
##adiahkan
menyalah
baro
##acan
##ovis
##toro
brain
maia
interc
##ocerus
pembi
##umpalan
geum
cart
pencampuran
ajudan
padri
##boa
strukturnya
pegas
differ
bosch
gabon
##omial
menegosiasikan
kekhasan
mimi
nadal
obereopsis
singkil
supersonik
reserve
infinite
dialaminya
ketrampilan
cagliari
ebu
father
##bakar
##gent
##hem
##fungsi
##ams
berz
##ulur
alarm
asm
kelimpahan
semburan
kepahl
parep
tergel
##ecia
oktav
malabar
dekrit
nomen
219
##amater
naratif
390
pontif
tesla
bengkok
560
diperbesar
nukleotida
perusahan
mendikbud
cynthia
keislaman
albatros
juna
tany
toni
uy
##rera
##tc
##ер
teridentifikasi
##upang
selendang
prolet
##rish
awang
harald
berdakwah
cerai
insulin
idenya
sosiolog
perbincangan
##elium
exechia
##insky
viral
valensi
assassin
lawak
horis
mengalirkan
ancol
gilda
scientif
pemanas
augsburg
الم
pilihannya
tersier
evolto
keduabelas
berantakan
staatsspoorwegen
daendels
faw
gross
uber
vice
##nom
##lud
##αν
##79
##asuki
##onnes
ore
arakan
saing
chuck
truth
dideportasi
dinda
maq
korbannya
eksterior
##aksir
petron
ahn
kongsi
bergaris
birma
##fiq
pilbup
dendy
kesepian
dorsal
sprint
beraktivitas
mengkhianati
innosensius
course
leptotarsus
launch
instrument
qaeda
pengambilalihan
##vestasikan
symphony
persinggahan
keledai
falsafah
kepahlawanan
ceng
fara
##rb
##rug
##nov
##oen
##xin
##yya
##psi
##حم
##estan
##iranya
##iding
mengorganisasi
pemog
##osongkan
pengubahan
indro
dipinjam
trenggal
##ardir
##emberg
bernhard
sino
##rei
##etahuinya
##elion
schul
scene
##plus
kompetitor
linkin
##erous
kusta
##malukan
ismael
paralimpiade
jelly
fransis
igor
sianida
mozilla
rovers
distorsi
bermagnitudo
sembarangan
618
cile
raka
waj
서
##batu
##cer
##witan
##erite
##arasi
##atika
##atori
##elen
membanggakan
meruncing
tahtanya
alain
##opolitan
marty
direction
klas
progressive
naomi
##asty
224
duyung
birds
dinyalakan
praset
aksesi
associates
monumental
transplantasi
trenggalek
530
kbk
liao
sena
##ience
##jee
##ار
##aska
##akn
##ilator
##engser
terbu
terurai
##umu
mengoptimalkan
pensil
##etton
##ayer
ora
barber
amn
mendasarkan
##ilight
such
tiup
makasar
##eriahkan
kuch
suram
dipertuturkan
mahdi
syst
ops
taq
luzon
fix
kandas
##araton
citanya
rafi
menginformasikan
sento
species
ptolema
kbri
ubuntu
cycl
hamengkubuwana
hijriyah
zagreb
yekater
hemingway
banc
monom
nand
nori
qs
tunt
tales
task
##raph
##hika
##58
##ен
ketem
unter
##agumi
melontarkan
asti
##patia
trah
##obon
soa
diniyah
##ansh
##patenkan
diriwayatkan
bukhari
bergulir
nats
penjualannya
autobiografi
perekrutan
movies
##elmaan
gontor
optimis
menyisihkan
##oterapi
keabadian
menyulitkan
apoteker
rookie
schleswig
kehijauan
porselen
metafora
focus
horm
koy
tuli
xav
diijinkan
terigu
pemin
##edanan
arrow
menyet
menyambung
sekira
seorangpun
atasannya
ditunjang
##tusuk
traktor
mako
dibelah
emile
kruyt
deportasi
lebur
upper
##ellata
route
##achia
mickey
mayang
floyd
nyoman
kondusif
saputra
mengapung
anehnya
female
augusta
illustr
vampire
ditekankan
andalusia
fleming
bertetangga
langganan
montgomer
baitu
cw
ie
kenis
wayan
witt
##nor
##wam
##69
##77
##angel
##ils
ketuanya
berau
spasial
##uhrer
albion
##endong
##open
agatha
##angkaan
##ancapkan
margu
181
##ifol
khadafi
sij
penghancur
terpanas
mouse
raid
twilight
saddam
leslie
titel
dreams
sofyan
karnivora
metabolit
orientalis
hijriah
pematung
wizard
fiction
perwalian
dent
fear
tobi
wass
##alf
menitik
keari
meminjamkan
##andarkan
pemkab
alek
prihat
diklat
pararaton
membantai
abh
##ugasi
siena
empl
postur
angkor
tuah
kasur
dibuatkan
bean
menggoda
hitch
tipu
molib
loud
hispan
707
knock
diselidiki
omn
wireless
##estorasi
nihon
farmak
sleep
alessandro
sampoerna
penggagas
manufactur
humaniora
kerukunan
clav
cinder
daman
gunc
lung
##lil
##mill
##ilahkan
tere
adak
mengibarkan
seruni
kelestarian
amen
disalin
##tock
grass
reed
##ansha
lionel
manusiawi
dijabarkan
toei
antariks
mulo
abdel
crew
hanna
mangalore
menyeret
323
hokkien
student
hkbp
value
kaldera
horisontal
hubung
ijin
nank
##ramat
##bid
##hia
terror
merel
penny
##awari
sergio
arun
menyiksa
amber
then
chul
tien
dilibatkan
##erigi
resistan
buangan
leu
##illing
script
tvone
osm
##ffle
rhy
robby
memasukkannya
paramiliter
kubis
singkawang
penggalangan
pompei
farid
daimler
responden
ropica
tarumanagara
tasawuf
achievement
montgomery
maran
smash
tami
uba
yor
##reta
##born
##arman
##inap
##isus
##taz
##apu
##sib
##tram
menjebak
asem
##enau
thorn
belu
kais
bersandar
##ovna
##ecca
rejo
liam
##ellia
##praja
padjad
ujar
raspa
menariknya
pamekasan
hotels
tikal
keringat
lipi
gusta
1791
tapal
bohem
khalkhos
hunger
warisnya
torymidae
adventures
messier
mythicomyia
aggregat
takahashi
mengungguli
baitul
padjadjaran
cih
gip
heng
wenang
##enah
##usumah
merem
##osfat
alto
##epak
berkesin
partik
ketepatan
palmer
disebutnya
diberangkatkan
blang
forward
binaan
211
kaisarea
234
keterbuk
intro
loji
rhine
elevasi
pemakamannya
960
ridge
##alsuan
pengkhotbah
##friend
thrones
mentawai
inhibitor
planck
tomorrow
candu
jk
rul
tale
zyg
##xian
##ying
##yla
##cin
##apuluh
##acon
steam
chorus
reid
klerus
terkunci
##ucikan
salerno
##unculannya
javan
nebukad
porsche
schwe
hampshire
gober
kerasnya
##show
linn
donat
##nano
rajas
jagoan
srim
halloween
gemini
vittor
690
mengubur
humanis
agraris
verde
terkubur
hidraulis
naqs
giorgio
beremigrasi
##imbolkan
kearifan
berkesinambungan
nebukadne
##sas
##quar
seal
##arifikasi
terses
penanggung
##sions
alawi
alvar
##enagai
amina
kesiapan
ump
hartono
bruder
animisme
mean
berpaling
drew
tumbukan
buzz
##umpun
##rilineal
blitz
pencucian
217
berganda
proposisi
circuit
netr
patricia
mangkurat
rsbi
##telasi
michele
##bruck
dreamworks
bikini
##okrates
licik
ikhlas
fusion
representatif
eduardo
512
hock
lille
##vius
##elev
##ushan
##uris
##ollis
pengger
masam
konoha
konotasi
bersentuhan
berkaki
pard
benturan
account
poppy
##ophrys
multil
simbolik
gagang
doo
dipimpinnya
munir
commuter
##voir
movement
october
ketertarikannya
kastila
canthidium
kakandanya
zambia
tondano
vereenig
nebukadnezar
nio
##rep
##lain
##geme
diode
##unit
penopang
##oderm
##opy
barth
treb
menghubung
##uguran
##odean
sumar
kurd
romance
lokakarya
progress
dijodohkan
basal
##untukan
visu
cakung
bintara
iraq
stamford
tritunggal
dibumbui
mensponsori
marguerite
gosip
nari
rini
tia
##bridge
##mini
##pb
##adur
##oleum
##etal
indycar
##otte
##anyang
dikons
must
suzan
berkeli
plakat
terpesona
irjen
onitis
##eous
multis
pembersih
padam
mewawancarai
pembajak
pembuahan
artists
starter
kepadaku
djarum
laban
patriarkat
hanafi
karoling
episodenya
janjinya
gone
g30
lori
naya
nyak
wsk
##kif
inkl
##okia
pengad
komoro
disabilitas
atari
terdekatnya
##kav
bren
##asihati
##ansyah
memprakarsai
konsek
konstelasi
kurma
jamuan
blink
nominee
cox
eph
tersirat
porter
multiv
mengkoordinasikan
terpilihnya
##kualifikasi
rosaceae
weap
anjou
##ideres
1797
jateng
produce
hardware
random
stefanus
wirausaha
ikhwan
chamberlin
kolaborator
miniseri
prihatin
dwar
emanuel
moy
vos
##tov
##ин
##ameral
##ires
##agal
##abalu
pengungsian
menyokong
##intal
amil
##raad
bersy
direndam
paragraf
dibina
sury
##anggrahan
sally
milk
javas
##osius
218
ajakan
gambarnya
kebijakannya
zhuang
mikrobi
landai
titanium
talaga
berselingkuh
lendir
menyedihkan
claudius
sezaman
membalikkan
byrne
mengomentari
xaverius
baya
cess
fum
gain
malahan
sond
##akami
##esen
mengangg
##udung
##seon
##ayaknya
##opod
barbad
mare
membengk
brimob
plc
palapa
krd
krama
##usius
insang
##tivo
pencetus
rekam
##adeus
kontraksi
hyuk
pepper
nikmat
##omunikasikan
featur
##tulang
kinabalu
marconi
1521
hubble
##player
manggis
disembuhkan
nawawi
pioneer
terobsesi
melindunginya
fx
##στ
##ilot
##rox
ormas
melukiskan
kelvin
kepulangan
dikalangan
desus
membusuk
##ecture
kumuh
minutes
epos
pencinta
##allo
armadanya
brooks
benth
dialiri
prion
##ynchus
kodansha
borussia
leningrad
metropolis
toyotomi
sporting
hafiz
untungnya
evolution
timotius
trevor
##engserkan
berkeliaran
aestetik
cint
hant
megan
retail
tea
##ield
##gli
##atch
##emont
##irg
##utung
anhui
penik
dipenggal
disco
ketahuan
dilip
##lax
polemik
surel
dekomposisi
##tech
tandingan
geo
dijawab
##atore
santi
munic
rekamannya
##rust
##mose
##zzy
corporate
yasin
menstabilkan
palau
sanjay
aborigin
wuruk
nashville
masyumi
wagner
epicypta
ensemb
walikota
gilles
p3
puru
tec
xxi
##cock
mendis
kecurangan
ditjen
dirah
bangau
memproduseri
bertengger
skisma
koleksinya
terbawah
supr
samad
tersentuh
251
penulisnya
alkal
##ternak
oswald
susuh
holden
faroe
mengunduh
devon
##usatsu
piper
lakers
bitcoin
marcos
belarusia
mengguncang
dimusnahkan
melebur
tersedianya
galisia
pemogokan
tersesat
eros
tadah
yad
yel
yada
##nn
##gens
##gede
##hun
##wannya
##vol
##لي
##asp
keutamaan
##urv
##tio
melly
asuh
dikeh
trach
##turbasi
berbisnis
dea
interst
diberbagai
toks
riza
ampuh
subroto
tersambung
termahal
curletti
homin
rubrik
sitoplasma
fenomenal
shannon
##rokimia
pewarisan
almamater
cable
menelurkan
sirius
ditegaskan
monastik
diobati
410
buas
bess
flex
##tamar
##mitt
##ematan
teringat
##bula
##ingsih
##ektivitas
##lew
kelt
barr
agrik
chance
menghamp
dibel
palme
khur
persalinan
kekelir
wargan
kebal
ekskavasi
1780
##ijn
mendapatkannya
purpur
##isipkan
razak
rockef
luca
##azar
buruknya
munisipal
375
lippo
pangkatnya
dikabulkan
jeju
atlantis
heterogen
cliona
gaozu
eisenh
schwarz
semanggi
amitabh
diketemukan
scientific
hz
nans
zip
##noy
##side
##onat
##arion
mengukir
##omec
asw
##enty
chalin
gencar
belut
##ilium
frey
perangnya
universite
magellan
pavel
lapang
johans
##ammer
rayap
pulp
##rosia
hoch
lego
sabha
banjarsari
rossa
yustinus
tiram
feed
locke
antiokhos
sembahyang
wrestling
kredib
membidangi
##kifli
eisenhower
hc
moc
##sw
##sia
##jn
##ilos
##ilingan
##imation
menjumpai
kemeja
##epati
kelemb
seker
##anty
kontainer
##rius
marj
tanker
##liffe
ples
palma
tengger
kompartemen
terkontaminasi
##ublikasi
puak
worth
##pennis
richardson
celtic
tidurnya
gardner
title
freddie
dedikasi
pemuliaan
axis
lancaster
quarter
lansia
leaders
dilipat
beyond
jeddah
gangster
citroen
systropus
bf
msc
pill
sot
##asy
inland
bertulang
tera
mengunci
mengonfirmasi
kelistrikan
dipak
muson
##ancong
menghadang
didesa
shaan
khor
mempawah
##ologies
mild
perkec
paula
mona
308
slip
crash
muawiyah
diane
july
470
chaos
bedanya
aquari
indoor
perutnya
fanatik
mensyaratkan
##aight
terjadwal
bravo
kelarutan
indulgensi
internazi
barbados
rockefeller
680
ei
futu
give
knox
mosi
pegang
##bei
##garan
##hk
##51
##zir
##ulam
antiv
serah
setya
##otai
dikon
bioteknologi
musl
mendel
disisi
angga
kaul
dilema
pelakunya
dee
shall
pembengk
panch
pankre
salem
obsc
pater
forces
lamaran
pakpak
galian
artian
sirup
reggae
hyde
kadmium
prabum
##madja
citr
kapasitasnya
feature
1787
speaker
jabung
nafkah
karimun
##wondo
republika
fleksibilitas
canthon
nubia
arafat
constance
zubair
heteroseksual
bersyukur
aib
bamb
bore
ciptakan
dock
feld
mudi
nora
romp
##dafi
##yudi
##aldi
##gaya
bertinggi
terra
perincian
adler
sepucuk
selembar
alta
##icles
##anyenya
sauber
musk
bres
##orius
pusing
elsa
pattim
kanoman
silv
262
purple
calab
bankir
rahel
gaia
triang
konstituante
memanas
ppm
santun
junta
tapin
overd
الله
haifa
peloponnes
egyp
eusta
dikhawatirkan
dzul
kalkulus
zedong
2d
aub
xie
##lakuan
##wanto
##alut
##atologi
##isik
keadaannya
##orin
##ukah
##amaannya
unc
##agah
ankara
##oslav
##acc
laz
bromo
dibantah
##tow
frustr
##hau
straight
pax
kampanyenya
rue
coen
content
##tsky
pandora
kemenyan
tabut
tamar
##davia
hyder
virtu
grow
ngengat
bacon
cakran
cacar
mengeksploitasi
neville
griffin
tribune
##asciata
keseluruhannya
competition
euc
kayan
oth
soda
vasil
zuh
##rika
##istem
##iraja
##imensi
merampok
##ages
##edr
seraya
arden
##anten
agn
thy
ditenagai
mencetuskan
senapati
sampang
##anggut
klm
takson
dicky
erupsi
error
este
##ronia
pemberlakuan
hours
campaign
donny
338
levant
gulung
##wangsa
sciophila
1794
##frag
zaid
ridley
penuturan
judy
barium
gaulle
menyakiti
mengalahkannya
kolumnis
vijay
keterbukaan
prabumulih
abul
nuri
##biro
##kip
##67
##anannya
diok
##adarkan
##buana
##eganya
kelancaran
ams
lebong
ditiru
mencair
##obil
dimula
soek
##tarsus
##olow
suryo
korelasi
eksisten
konseling
lions
1750
perkamen
##waru
layer
macintosh
mengkat
muslimah
lines
##lingen
tetra
tours
teheran
999
767
787
dawai
mengasumsikan
superstar
penampang
python
merangkul
simpatisan
relikui
dichotom
kama
kraft
lens
pps
##xes
##cott
##adas
##usalem
mementaskan
memukau
##ukle
##abri
bersarang
shinta
suro
mempopulerkan
pembedaan
iban
##tista
koi
248
joachim
fischer
##dao
hole
trieste
firef
defence
celine
bundaran
claus
crossover
ketukan
hebei
mereformasi
asimilasi
fellowship
mccarthy
##ikkonen
btr
cana
gia
kuli
mutan
nurn
powi
rk
##bos
##xq
##phi
##fet
berirama
##irnya
meredakan
penolong
##awasih
##traksi
agre
##oglob
brantas
enk
baz
fresh
sunsh
sunyi
maggie
carbon
pulch
gamet
weas
kroya
brahman
brahmi
neraca
centa
zainuddin
laurent
buckingham
vaclav
keabs
menceraikan
abkhazia
ava
c2
mebel
oed
zack
##yk
##prov
##alla
##unn
##umin
membul
meru
##etat
mello
##odai
sejenak
menghidup
berbaur
kurungan
drona
ballad
geiger
satgas
kunyit
boer
kenari
keberagaman
tautan
raikkonen
kopling
muta
natuna
ratih
dagingnya
cenderawasih
penyelam
muktamar
sapu
chiba
bright
diraihnya
menginduksi
chateau
ioannes
kependidikan
shuttle
soekarnoputri
bhayangkara
adakalanya
dono
gema
shire
vu
##you
##cic
##jing
##ße
##alayan
setib
##adani
merta
penunggang
spike
##enden
##itasnya
sugar
ditanggung
awet
##iferasi
resc
tele
warkop
##embatani
gelaran
koleganya
petrokimia
menggug
##tribu
tomohon
mcg
tetesan
##rano
##unjunginya
moses
buprestis
saparua
mirage
jennings
annual
cendana
cctv
fasci
whiteh
bertumpu
zulkar
mengikutsertakan
alexandre
ultimate
memproklamasikan
millennium
perkapalan
susuhunan
##oglobin
canyon
lontong
qantas
rate
sukan
##ει
permi
adon
mengelompokkan
merit
##osph
menyalin
aktu
masinis
##antoro
ditangguhkan
paslon
##saf
dilupakan
abdom
dibintang
##owitz
##afal
stress
imf
dibayangkan
304
##utuhan
segaris
##itions
taur
proyektor
##fier
penggilingan
tanjungpinang
ipad
ipod
##wealth
freeman
retno
cibu
shanxi
sensitivitas
##syur
guangxi
intrik
bharata
ilustrator
diproyeksikan
johannesburg
lynch
bertiup
zanz
dominion
mendaratkan
setibanya
dhan
kwang
mormon
toshi
wiel
##lap
##pahan
##ατ
##zano
##urinya
pengungk
arna
##rave
thiel
chas
marquez
##evitch
memberantas
bertanggal
##tikultura
1740
dicuci
kampong
roes
rooney
monter
302
erm
nyatanya
hamster
taruhan
idealisme
hidrof
bilbao
pengeras
1920an
rukh
dede
perilisannya
##ugeot
loyalis
pesaingnya
ongkos
menggeluti
cruise
ditiadakan
##ophanus
affairs
internazionale
dichotomius
powiat
aik
hbs
nj
wap
##52
##ии
dipatenkan
##escu
##isc
##usumo
adver
##imilasi
asahi
##chth
ism
isle
##thard
tanggap
pash
##oidea
##ifah
biskuit
khus
lies
##grad
tekun
peugeot
musikus
inst
komunal
erich
heritage
poer
going
##veen
gale
komplemen
siapakah
davies
kadus
defensif
1796
1776
bangkitnya
penalaran
rebana
barbarossa
memproklamirkan
keikutsertaan
petroleum
dji
gamping
hek
hsi
iter
pitch
soleh
ved
đinh
##raksi
##oikot
##ees
##eep
##iland
##imura
##omerus
anang
anyar
##esip
melenyapkan
##isikan
##epokan
indoc
apache
##ipik
dilingk
tanas
berdirilah
dibantai
paleo
dipertuan
colomb
##owan
smile
minusc
dekoratif
estim
gladi
249
223
charlem
##wardi
alternative
gandrung
spektr
##alonika
pascap
lynn
transparansi
euph
gymn
keasaman
jpg
pencabutan
gemeente
mengacaukan
charlemagne
apat
aig
edom
##hl
##matis
##vak
setap
menangg
##isida
berinisi
adj
[...]
